<unk>	0
<s>	0
</s>	0
<pad>	0
<user>	0
<bot>	0
<end>	0
😀	0
😃	0
😄	0
😅	0
😂	0
😗	0
😙	0
😚	0
😊	0
🙃	0
🙂	0
😑	0
😐	0
🫢	0
🤭	0
🥱	0
🤗	0
🫣	0
😱	0
🤨	0
🧐	0
😒	0
😧	0
😟	0
🙄	0
😥	0
😦	0
😮‍💨	0
😢	0
😮	0
😤	0
☹️	0
😯	0
😠	0
🙁	0
😲	0
😡	0
🫤	0
😳	0
🤬	0
😕	0
🤯	0
🥵	0
🤢	0
🤮	0
😖	0
😣	0
😰	0
😨	0
😞	0
😓	0
❤️	0
✌️	0
🫲	0
🫱	0
💪	0
👏	0
👍	0
👎	0
🤜	0
🤛	0
✊	0
👊	0
🥰	0
😍	0
🤪	0
🤓	0
🤖	0
👾	0
👻	0
Tower	0
tower	0
GPT	0
Midway	0
<0x00>	0
<0x01>	0
<0x02>	0
<0x03>	0
<0x04>	0
<0x05>	0
<0x06>	0
<0x07>	0
<0x08>	0
<0x09>	0
<0x0A>	0
<0x0B>	0
<0x0C>	0
<0x0D>	0
<0x0E>	0
<0x0F>	0
<0x10>	0
<0x11>	0
<0x12>	0
<0x13>	0
<0x14>	0
<0x15>	0
<0x16>	0
<0x17>	0
<0x18>	0
<0x19>	0
<0x1A>	0
<0x1B>	0
<0x1C>	0
<0x1D>	0
<0x1E>	0
<0x1F>	0
<0x20>	0
<0x21>	0
<0x22>	0
<0x23>	0
<0x24>	0
<0x25>	0
<0x26>	0
<0x27>	0
<0x28>	0
<0x29>	0
<0x2A>	0
<0x2B>	0
<0x2C>	0
<0x2D>	0
<0x2E>	0
<0x2F>	0
<0x30>	0
<0x31>	0
<0x32>	0
<0x33>	0
<0x34>	0
<0x35>	0
<0x36>	0
<0x37>	0
<0x38>	0
<0x39>	0
<0x3A>	0
<0x3B>	0
<0x3C>	0
<0x3D>	0
<0x3E>	0
<0x3F>	0
<0x40>	0
<0x41>	0
<0x42>	0
<0x43>	0
<0x44>	0
<0x45>	0
<0x46>	0
<0x47>	0
<0x48>	0
<0x49>	0
<0x4A>	0
<0x4B>	0
<0x4C>	0
<0x4D>	0
<0x4E>	0
<0x4F>	0
<0x50>	0
<0x51>	0
<0x52>	0
<0x53>	0
<0x54>	0
<0x55>	0
<0x56>	0
<0x57>	0
<0x58>	0
<0x59>	0
<0x5A>	0
<0x5B>	0
<0x5C>	0
<0x5D>	0
<0x5E>	0
<0x5F>	0
<0x60>	0
<0x61>	0
<0x62>	0
<0x63>	0
<0x64>	0
<0x65>	0
<0x66>	0
<0x67>	0
<0x68>	0
<0x69>	0
<0x6A>	0
<0x6B>	0
<0x6C>	0
<0x6D>	0
<0x6E>	0
<0x6F>	0
<0x70>	0
<0x71>	0
<0x72>	0
<0x73>	0
<0x74>	0
<0x75>	0
<0x76>	0
<0x77>	0
<0x78>	0
<0x79>	0
<0x7A>	0
<0x7B>	0
<0x7C>	0
<0x7D>	0
<0x7E>	0
<0x7F>	0
<0x80>	0
<0x81>	0
<0x82>	0
<0x83>	0
<0x84>	0
<0x85>	0
<0x86>	0
<0x87>	0
<0x88>	0
<0x89>	0
<0x8A>	0
<0x8B>	0
<0x8C>	0
<0x8D>	0
<0x8E>	0
<0x8F>	0
<0x90>	0
<0x91>	0
<0x92>	0
<0x93>	0
<0x94>	0
<0x95>	0
<0x96>	0
<0x97>	0
<0x98>	0
<0x99>	0
<0x9A>	0
<0x9B>	0
<0x9C>	0
<0x9D>	0
<0x9E>	0
<0x9F>	0
<0xA0>	0
<0xA1>	0
<0xA2>	0
<0xA3>	0
<0xA4>	0
<0xA5>	0
<0xA6>	0
<0xA7>	0
<0xA8>	0
<0xA9>	0
<0xAA>	0
<0xAB>	0
<0xAC>	0
<0xAD>	0
<0xAE>	0
<0xAF>	0
<0xB0>	0
<0xB1>	0
<0xB2>	0
<0xB3>	0
<0xB4>	0
<0xB5>	0
<0xB6>	0
<0xB7>	0
<0xB8>	0
<0xB9>	0
<0xBA>	0
<0xBB>	0
<0xBC>	0
<0xBD>	0
<0xBE>	0
<0xBF>	0
<0xC0>	0
<0xC1>	0
<0xC2>	0
<0xC3>	0
<0xC4>	0
<0xC5>	0
<0xC6>	0
<0xC7>	0
<0xC8>	0
<0xC9>	0
<0xCA>	0
<0xCB>	0
<0xCC>	0
<0xCD>	0
<0xCE>	0
<0xCF>	0
<0xD0>	0
<0xD1>	0
<0xD2>	0
<0xD3>	0
<0xD4>	0
<0xD5>	0
<0xD6>	0
<0xD7>	0
<0xD8>	0
<0xD9>	0
<0xDA>	0
<0xDB>	0
<0xDC>	0
<0xDD>	0
<0xDE>	0
<0xDF>	0
<0xE0>	0
<0xE1>	0
<0xE2>	0
<0xE3>	0
<0xE4>	0
<0xE5>	0
<0xE6>	0
<0xE7>	0
<0xE8>	0
<0xE9>	0
<0xEA>	0
<0xEB>	0
<0xEC>	0
<0xED>	0
<0xEE>	0
<0xEF>	0
<0xF0>	0
<0xF1>	0
<0xF2>	0
<0xF3>	0
<0xF4>	0
<0xF5>	0
<0xF6>	0
<0xF7>	0
<0xF8>	0
<0xF9>	0
<0xFA>	0
<0xFB>	0
<0xFC>	0
<0xFD>	0
<0xFE>	0
<0xFF>	0
中国	-0
公司	-1
**	-2
发展	-3
工作	-4
。”	-5
市场	-6
企业	-7
一个	-8
..	-9
我们	-10
服务	-11
经济	-12
--	-13
国家	-14
进行	-15
”,	-16
记者	-17
人民	-18
问题	-19
表示	-20
▁|	-21
产品	-22
技术	-23
没有	-24
建设	-25
”。	-26
▁“	-27
通过	-28
可以	-29
社会	-30
投资	-31
自己	-32
▁**	-33
管理	-34
他们	-35
方面	-36
目前	-37
,“	-38
产业	-39
美国	-40
亿元	-41
项目	-42
文化	-43
安全	-44
时间	-45
北京	-46
增长	-47
今年	-48
已经	-49
政府	-50
人员	-51
行业	-52
研究	-53
数据	-54
活动	-55
同时	-56
生产	-57
实现	-58
%,	-59
国际	-60
情况	-61
合作	-62
可能	-63
消费	-64
重要	-65
成为	-66
世界	-67
这个	-68
提供	-69
科技	-70
教育	-71
相关	-72
需要	-73
就是	-74
中心	-75
创新	-76
:“	-77
政策	-78
第一	-79
....	-80
信息	-81
影响	-82
平台	-83
全国	-84
组织	-85
其中	-86
▁在	-87
主要	-88
生活	-89
%。	-90
作为	-91
城市	-92
发布	-93
以及	-94
的一	-95
地区	-96
开始	-97
认为	-98
一步	-99
要求	-100
部门	-101
这些	-102
开展	-103
部分	-104
出现	-105
持续	-106
▁据	-107
汽车	-108
万元	-109
提升	-110
环境	-111
价格	-112
业务	-113
到了	-114
大的	-115
对于	-116
大学	-117
品牌	-118
能力	-119
上海	-120
----	-121
什么	-122
机构	-123
因为	-124
如果	-125
了一	-126
系统	-127
代表	-128
发现	-129
的是	-130
全球	-131
现在	-132
主义	-133
领域	-134
银行	-135
显示	-136
不断	-137
集团	-138
需求	-139
支持	-140
方式	-141
进一步	-142
——	-143
推动	-144
群众	-145
。“	-146
责任	-147
这一	-148
不是	-149
未来	-150
基础	-151
人的	-152
根据	-153
资金	-154
也是	-155
使用	-156
以来	-157
积极	-158
金融	-159
质量	-160
这样	-161
提高	-162
一些	-163
的人	-164
同比	-165
资源	-166
智能	-167
有限	-168
解决	-169
收入	-170
计划	-171
包括	-172
其他	-173
历史	-174
国内	-175
加强	-176
发生	-177
推进	-178
增加	-179
风险	-180
还是	-181
基金	-182
销售	-183
报道	-184
保护	-185
关系	-186
完成	-187
学生	-188
美元	-189
年的	-190
了解	-191
交易	-192
会议	-193
更多	-194
工程	-195
改革	-196
网络	-197
继续	-198
旅游	-199
上的	-200
我国	-201
规模	-202
疫情	-203
介绍	-204
很多	-205
不同	-206
科学	-207
领导	-208
这是	-209
超过	-210
关注	-211
保障	-212
重点	-213
全面	-214
联合	-215
能源	-216
第二	-217
水平	-218
用户	-219
标准	-220
获得	-221
生态	-222
法院	-223
负责	-224
中的	-225
报告	-226
健康	-227
正在	-228
孩子	-229
共同	-230
农业	-231
实施	-232
学习	-233
日电	-234
提出	-235
内容	-236
时代	-237
经营	-238
开发	-239
不能	-240
委员	-241
基本	-242
▁(	-243
自己的	-244
数字	-245
存在	-246
都是	-247
日本	-248
分析	-249
希望	-250
单位	-251
专业	-252
个人	-253
规定	-254
进入	-255
还有	-256
这种	-257
分别	-258
上市	-259
过程	-260
来的	-261
精神	-262
由于	-263
建立	-264
有限公司	-265
去年	-266
为了	-267
设计	-268
时候	-269
执行	-270
行为	-271
参与	-272
非常	-273
现场	-274
中央	-275
达到	-276
但是	-277
模式	-278
制度	-279
年来	-280
传统	-281
新的	-282
工业	-283
交通	-284
好的	-285
随着	-286
地方	-287
体系	-288
媒体	-289
调查	-290
法律	-291
有关	-292
目标	-293
不仅	-294
大家	-295
形成	-296
......	-297
参加	-298
坚持	-299
▁中	-300
学校	-301
选择	-302
实际	-303
战略	-304
一定	-305
措施	-306
能够	-307
一直	-308
如何	-309
行动	-310
作用	-311
新闻	-312
医院	-313
编辑	-314
之后	-315
),	-316
所有	-317
▁第	-318
书记	-319
价值	-320
指出	-321
当地	-322
比赛	-323
利用	-324
期间	-325
in	-326
医疗	-327
关于	-328
综合	-329
季度	-330
特别	-331
成本	-332
因此	-333
运动	-334
虽然	-335
股份	-336
下降	-337
以上	-338
优势	-339
具有	-340
所以	-341
消费者	-342
来自	-343
应用	-344
促进	-345
er	-346
机制	-347
证券	-348
联网	-349
宣传	-350
政治	-351
有效	-352
消息	-353
决定	-354
起来	-355
是一	-356
干部	-357
不过	-358
今天	-359
成功	-360
资产	-361
区域	-362
举行	-363
看到	-364
甚至	-365
制造	-366
核心	-367
预计	-368
客户	-369
利润	-370
监管	-371
空间	-372
打造	-373
必须	-374
两个	-375
竞争	-376
资本	-377
社区	-378
调整	-379
方案	-380
现代	-381
▁本	-382
艺术	-383
来看	-384
帮助	-385
稳定	-386
劳动	-387
专家	-388
商业	-389
发挥	-390
人才	-391
的大	-392
截至	-393
的新	-394
条件	-395
供应	-396
此外	-397
表现	-398
半年	-399
保持	-400
过去	-401
建议	-402
主席	-403
不会	-404
系列	-405
之间	-406
出了	-407
结合	-408
第三	-409
不少	-410
处理	-411
之一	-412
成立	-413
▁新	-414
接受	-415
手机	-416
落实	-417
一次	-418
一起	-419
更加	-420
开放	-421
按照	-422
任务	-423
比较	-424
阶段	-425
结果	-426
变化	-427
取得	-428
农村	-429
设备	-430
交流	-431
力量	-432
研发	-433
只有	-434
视频	-435
明显	-436
原因	-437
应该	-438
居民	-439
或者	-440
互联网	-441
》,	-442
家庭	-443
有的	-444
直接	-445
个月	-446
民族	-447
思想	-448
的重要	-449
来说	-450
知识	-451
”“	-452
此次	-453
关键	-454
青年	-455
最高	-456
治理	-457
充分	-458
长期	-459
努力	-460
香港	-461
委员会	-462
导致	-463
农民	-464
案件	-465
严重	-466
规划	-467
针对	-468
自然	-469
最后	-470
近日	-471
功能	-472
控制	-473
经验	-474
保险	-475
公安	-476
左右	-477
受到	-478
创业	-479
他的	-480
团队	-481
行政	-482
经过	-483
运营	-484
设施	-485
知道	-486
特色	-487
人们	-488
明确	-489
重大	-490
深入	-491
正式	-492
负责人	-493
最终	-494
除了	-495
▁专	-496
集中	-497
机会	-498
减少	-499
电影	-500
结构	-501
材料	-502
具体	-503
告诉	-504
人士	-505
on	-506
造成	-507
融资	-508
完善	-509
公告	-510
小时	-511
发展的	-512
整体	-513
而且	-514
电子	-515
带来	-516
中华	-517
体验	-518
主题	-519
是否	-520
an	-521
体育	-522
及时	-523
这里	-524
意见	-525
培训	-526
做好	-527
食品	-528
当时	-529
注意	-530
预期	-531
▁中新	-532
范围	-533
主任	-534
采取	-535
先生	-536
的问题	-537
机关	-538
▁原	-539
▁专栏	-540
双方	-541
并不	-542
朋友	-543
的发展	-544
加快	-545
商品	-546
一样	-547
游戏	-548
地产	-549
指数	-550
革命	-551
得到	-552
上涨	-553
贸易	-554
无法	-555
亿美元	-556
当前	-557
建筑	-558
许多	-559
任何	-560
。(	-561
同比增长	-562
--------	-563
的情况	-564
会上	-565
指导	-566
申请	-567
也有	-568
准备	-569
就业	-570
▁>	-571
投入	-572
文明	-573
产生	-574
公共	-575
投资者	-576
▁一	-577
方向	-578
来越	-579
乡村	-580
比如	-581
卫生	-582
越来越	-583
华社	-584
那么	-585
作品	-586
各种	-587
职工	-588
▁【	-589
之前	-590
升级	-591
推出	-592
公开	-593
ht	-594
监督	-595
事业	-596
犯罪	-597
扩大	-598
贷款	-599
罗斯	-600
年轻	-601
检查	-602
”、	-603
的时候	-604
事件	-605
统计	-606
](	-607
基地	-608
出口	-609
标题	-610
实践	-611
电话	-612
学院	-613
累计	-614
全部	-615
是在	-616
绿色	-617
快速	-618
驾驶	-619
压力	-620
拥有	-621
平均	-622
最大	-623
广州	-624
另一	-625
月份	-626
联系	-627
依法	-628
公里	-629
数量	-630
▁[	-631
成果	-632
俄罗斯	-633
过程中	-634
面积	-635
统一	-636
人民币	-637
举办	-638
最近	-639
宣布	-640
连续	-641
创造	-642
此前	-643
利率	-644
购买	-645
协议	-646
性的	-647
其实	-648
形式	-649
支付	-650
怎么	-651
完全	-652
确保	-653
强调	-654
这样的	-655
化的	-656
规范	-657
考虑	-658
▁原标题	-659
进行了	-660
英国	-661
职业	-662
董事	-663
觉得	-664
公布	-665
困难	-666
%;	-667
▁从	-668
业绩	-669
的高	-670
新能源	-671
面对	-672
突破	-673
确定	-674
员工	-675
社会主义	-676
也不	-677
!”	-678
才能	-679
恢复	-680
下的	-681
面临	-682
丰富	-683
生物	-684
多个	-685
深圳	-686
程度	-687
检测	-688
办公	-689
经理	-690
办法	-691
只是	-692
优化	-693
土地	-694
报记者	-695
故事	-696
真正	-697
后的	-698
直播	-699
因素	-700
道路	-701
降低	-702
广东	-703
车辆	-704
意识	-705
司法	-706
AI	-707
我的	-708
渠道	-709
协会	-710
整个	-711
大会	-712
探索	-713
大量	-714
党的	-715
儿童	-716
)、	-717
成了	-718
▁中新网	-719
各地	-720
市民	-721
如今	-722
▁中国	-723
一种	-724
浙江	-725
违法	-726
收益	-727
计算	-728
音乐	-729
通知	-730
动力	-731
基层	-732
吸引	-733
意义	-734
趋势	-735
主动	-736
高质量	-737
二十	-738
合同	-739
相比	-740
增强	-741
这次	-742
融合	-743
首次	-744
利益	-745
召开	-746
工作人员	-747
训练	-748
欧洲	-749
加大	-750
结束	-751
出的	-752
和平	-753
方法	-754
成员	-755
台湾	-756
不到	-757
我们的	-758
一年	-759
电视	-760
发行	-761
公司的	-762
费用	-763
运行	-764
的事	-765
贡献	-766
微信	-767
股东	-768
近期	-769
▁《	-770
近年来	-771
转型	-772
运输	-773
保证	-774
启动	-775
满足	-776
安排	-777
处于	-778
一般	-779
比例	-780
)。	-781
不得	-782
改善	-783
游客	-784
以下	-785
公众	-786
海外	-787
数据显示	-788
新冠	-789
财政	-790
自动	-791
一家	-792
再次	-793
维护	-794
改变	-795
状态	-796
市场的	-797
值得	-798
生命	-799
布局	-800
:《	-801
属于	-802
en	-803
观众	-804
下午	-805
上半年	-806
委会	-807
强化	-808
电池	-809
防控	-810
板块	-811
电商	-812
符合	-813
如此	-814
万人	-815
操作	-816
ar	-817
主体	-818
采用	-819
近平	-820
](/	-821
成长	-822
线上	-823
相对	-824
资料	-825
采访	-826
场景	-827
工人	-828
习近平	-829
山东	-830
患者	-831
大幅	-832
制定	-833
培养	-834
优秀	-835
涉及	-836
是一个	-837
净利润	-838
同期	-839
推广	-840
总统	-841
同志	-842
合理	-843
老师	-844
力度	-845
分钟	-846
另外	-847
来源	-848
污染	-849
铁路	-850
同样	-851
▁记者	-852
事故	-853
上升	-854
广大	-855
成绩	-856
理论	-857
中小	-858
严格	-859
挑战	-860
位于	-861
有些	-862
用于	-863
每天	-864
将在	-865
自身	-866
内的	-867
正常	-868
覆盖	-869
出来	-870
机器	-871
州市	-872
展示	-873
引导	-874
力的	-875
逐步	-876
作者	-877
对此	-878
构建	-879
at	-880
治疗	-881
利亚	-882
人工	-883
尤其	-884
的小	-885
方米	-886
然而	-887
有所	-888
下来	-889
不可	-890
尽管	-891
两国	-892
印度	-893
检察	-894
示范	-895
人口	-896
并且	-897
股票	-898
改造	-899
最大的	-900
事实	-901
理念	-902
▁这	-903
?”	-904
目的	-905
htm	-906
部长	-907
志愿	-908
工作的	-909
容易	-910
年度	-911
先进	-912
效果	-913
执法	-914
围绕	-915
民警	-916
有人	-917
网友	-918
支撑	-919
营业	-920
年前	-921
国务	-922
成交	-923
▁今年	-924
智慧	-925
原则	-926
经历	-927
人类	-928
村民	-929
一名	-930
上午	-931
迅速	-932
工会	-933
江苏	-934
上述	-935
警方	-936
。**	-937
反映	-938
每年	-939
一位	-940
住房	-941
认识	-942
▁为	-943
房地产	-944
逐渐	-945
应当	-946
北京市	-947
重庆	-948
普通	-949
广告	-950
共和	-951
新增	-952
各类	-953
仍然	-954
效率	-955
多的	-956
十分	-957
都有	-958
他们的	-959
网站	-960
韩国	-961
世纪	-962
而是	-963
纠纷	-964
法治	-965
发表	-966
日前	-967
感染	-968
现实	-969
病例	-970
办理	-971
不足	-972
毕业	-973
里的	-974
工厂	-975
养老	-976
四川	-977
,《	-978
现象	-979
时期	-980
一体	-981
进口	-982
环节	-983
民主	-984
更好	-985
天气	-986
也在	-987
意味	-988
教师	-989
货币	-990
首先	-991
成都	-992
的工作	-993
小区	-994
程序	-995
多数	-996
占比	-997
医药	-998
高速	-999
独立	-1000
专项	-1001
:**	-1002
重视	-1003
销量	-1004
三个	-1005
依然	-1006
几乎	-1007
不要	-1008
为主	-1009
他说	-1010
号码	-1011
德国	-1012
这么	-1013
自由	-1014
权益	-1015
队伍	-1016
传播	-1017
电动	-1018
百分	-1019
东西	-1020
老人	-1021
战争	-1022
金额	-1023
只能	-1024
广泛	-1025
岁的	-1026
证明	-1027
无论	-1028
实验	-1029
企业的	-1030
al	-1031
人民法院	-1032
”、“	-1033
增速	-1034
斗争	-1035
重要的	-1036
天津	-1037
多次	-1038
集体	-1039
共产	-1040
讨论	-1041
收购	-1042
营销	-1043
or	-1044
等方面	-1045
军事	-1046
就会	-1047
上市公司	-1048
产业链	-1049
而言	-1050
法国	-1051
以后	-1052
日报	-1053
身份	-1054
鼓励	-1055
高的	-1056
最新	-1057
()	-1058
教授	-1059
有了	-1060
根本	-1061
速度	-1062
中国的	-1063
深化	-1064
说明	-1065
部署	-1066
的方式	-1067
工具	-1068
全省	-1069
应对	-1070
本次	-1071
周期	-1072
全市	-1073
南省	-1074
喜欢	-1075
意味着	-1076
引发	-1077
优质	-1078
理解	-1079
随后	-1080
环保	-1081
软件	-1082
当天	-1083
武汉	-1084
文章	-1085
病毒	-1086
万吨	-1087
少年	-1088
航空	-1089
声明	-1090
实行	-1091
党委	-1092
营收	-1093
种植	-1094
始终	-1095
披露	-1096
带动	-1097
指标	-1098
高度	-1099
自主	-1100
心理	-1101
国务院	-1102
街道	-1103
有一	-1104
一路	-1105
下跌	-1106
助力	-1107
官方	-1108
对外	-1109
附近	-1110
男子	-1111
机场	-1112
只要	-1113
内部	-1114
公园	-1115
协调	-1116
日在	-1117
透露	-1118
▁此外	-1119
作出	-1120
来到	-1121
自治	-1122
先后	-1123
应急	-1124
多元	-1125
苹果	-1126
医生	-1127
承担	-1128
女士	-1129
呈现	-1130
咨询	-1131
重新	-1132
落地	-1133
死亡	-1134
▁李	-1135
矛盾	-1136
的同时	-1137
es	-1138
南京	-1139
IP	-1140
给予	-1141
部队	-1142
的话	-1143
▁张	-1144
酒店	-1145
物流	-1146
%、	-1147
粮食	-1148
平方米	-1149
党员	-1150
出台	-1151
限制	-1152
冠军	-1153
都在	-1154
基于	-1155
▁新华社	-1156
股权	-1157
▁S	-1158
零售	-1159
产量	-1160
形势	-1161
▁而	-1162
避免	-1163
信心	-1164
监测	-1165
制作	-1166
共和国	-1167
参考	-1168
球队	-1169
特别是	-1170
消防	-1171
责任编辑	-1172
背景	-1173
当然	-1174
▁王	-1175
经常	-1176
分别为	-1177
创作	-1178
论坛	-1179
复杂	-1180
数字化	-1181
教学	-1182
共享	-1183
▁责任编辑	-1184
杭州	-1185
体现	-1186
那些	-1187
施工	-1188
日起	-1189
注册	-1190
亚洲	-1191
切实	-1192
公路	-1193
突出	-1194
然后	-1195
也会	-1196
微博	-1197
做到	-1198
模型	-1199
外交	-1200
提前	-1201
手段	-1202
都会	-1203
出版	-1204
简单	-1205
设立	-1206
更是	-1207
登记	-1208
年底	-1209
移动	-1210
普遍	-1211
特点	-1212
了一个	-1213
高校	-1214
加速	-1215
il	-1216
家长	-1217
观察	-1218
评价	-1219
调研	-1220
损失	-1221
的基础	-1222
距离	-1223
打击	-1224
车型	-1225
的影响	-1226
流动	-1227
欢迎	-1228
昨天	-1229
解放	-1230
贯彻	-1231
大型	-1232
年人	-1233
文学	-1234
来了	-1235
各项	-1236
反对	-1237
▁本报	-1238
展开	-1239
组成	-1240
》《	-1241
▁根据	-1242
感觉	-1243
贫困	-1244
者的	-1245
疫苗	-1246
加入	-1247
现代化	-1248
身体	-1249
日晚	-1250
认真	-1251
流量	-1252
盈利	-1253
河北	-1254
小组	-1255
调解	-1256
运会	-1257
分享	-1258
科研	-1259
有望	-1260
之间的	-1261
深度	-1262
岗位	-1263
总理	-1264
人大	-1265
精准	-1266
试验	-1267
指挥	-1268
高端	-1269
状况	-1270
特殊	-1271
cn	-1272
出行	-1273
处罚	-1274
节目	-1275
的一个	-1276
位置	-1277
试点	-1278
芯片	-1279
设置	-1280
从而	-1281
在中国	-1282
它们	-1283
沟通	-1284
建成	-1285
高质量发展	-1286
短期	-1287
找到	-1288
股价	-1289
看来	-1290
总体	-1291
相当	-1292
难以	-1293
商务	-1294
概念	-1295
聚焦	-1296
装备	-1297
黄金	-1298
更多的	-1299
地位	-1300
de	-1301
▁目前	-1302
群体	-1303
提供了	-1304
工资	-1305
具备	-1306
推荐	-1307
记录	-1308
引领	-1309
一下	-1310
引起	-1311
网上	-1312
昨日	-1313
人工智能	-1314
在于	-1315
区的	-1316
信用	-1317
之外	-1318
每个	-1319
新时代	-1320
▁但	-1321
大力	-1322
现金	-1323
PP	-1324
为什么	-1325
立即	-1326
苏联	-1327
还要	-1328
上了	-1329
振兴	-1330
情绪	-1331
有利	-1332
朝鲜	-1333
协同	-1334
评估	-1335
环比	-1336
补贴	-1337
两年	-1338
产品的	-1339
公益	-1340
线下	-1341
加工	-1342
幸福	-1343
诉讼	-1344
品质	-1345
被告	-1346
年代	-1347
曾经	-1348
担任	-1349
第四	-1350
it	-1351
可能会	-1352
告诉记者	-1353
你们	-1354
ap	-1355
预测	-1356
至今	-1357
家的	-1358
领域的	-1359
垃圾	-1360
技能	-1361
文件	-1362
相信	-1363
▁我	-1364
三年	-1365
父母	-1366
产能	-1367
几个	-1368
发言	-1369
排名	-1370
正是	-1371
无人	-1372
下滑	-1373
纷纷	-1374
全力	-1375
将于	-1376
必要	-1377
的时间	-1378
肺炎	-1379
胜利	-1380
石油	-1381
多种	-1382
格局	-1383
飞机	-1384
▁对于	-1385
大部分	-1386
后来	-1387
ou	-1388
维持	-1389
各国	-1390
很大	-1391
配合	-1392
社交	-1393
肯定	-1394
所在	-1395
总经理	-1396
并没有	-1397
基础设施	-1398
儿子	-1399
她的	-1400
以前	-1401
动物	-1402
策略	-1403
品种	-1404
福建	-1405
救援	-1406
拓展	-1407
互动	-1408
及其	-1409
董事长	-1410
各级	-1411
湖北	-1412
邀请	-1413
▁A	-1414
ic	-1415
真实	-1416
派出	-1417
人数	-1418
办公室	-1419
形象	-1420
团结	-1421
二是	-1422
采购	-1423
态度	-1424
亏损	-1425
非法	-1426
▁摄	-1427
##	-1428
不再	-1429
一点	-1430
总书记	-1431
较大	-1432
▁C	-1433
通讯	-1434
顺利	-1435
球员	-1436
景区	-1437
机械	-1438
解释	-1439
新型	-1440
确诊	-1441
控股	-1442
高效	-1443
从事	-1444
几年	-1445
第一次	-1446
配置	-1447
还在	-1448
的中国	-1449
危机	-1450
▁图	-1451
华为	-1452
至少	-1453
回应	-1454
博物	-1455
提醒	-1456
斯拉	-1457
访问	-1458
疫情防控	-1459
分子	-1460
▁近日	-1461
举措	-1462
仪式	-1463
周边	-1464
春节	-1465
免费	-1466
感到	-1467
斯坦	-1468
实现了	-1469
东方	-1470
规则	-1471
期待	-1472
日常	-1473
om	-1474
知名	-1475
角度	-1476
一天	-1477
带来的	-1478
一批	-1479
方面的	-1480
发布的	-1481
突然	-1482
低于	-1483
产权	-1484
的情况下	-1485
尤其是	-1486
专门	-1487
联合国	-1488
观点	-1489
多少	-1490
离开	-1491
理想	-1492
的主要	-1493
流程	-1494
战斗	-1495
伙伴	-1496
往往	-1497
文物	-1498
的前	-1499
似乎	-1500
出席	-1501
决策	-1502
贵州	-1503
一致	-1504
美联	-1505
一线	-1506
坚决	-1507
涨幅	-1508
授权	-1509
培育	-1510
很难	-1511
领先	-1512
发动	-1513
等地	-1514
选手	-1515
案例	-1516
表达	-1517
愿意	-1518
另一方面	-1519
的产品	-1520
新华社	-1521
天然	-1522
研究院	-1523
民众	-1524
显著	-1525
财务	-1526
多年	-1527
国家的	-1528
律师	-1529
---	-1530
确实	-1531
越南	-1532
财经	-1533
对方	-1534
人民的	-1535
蒙古	-1536
通道	-1537
制造业	-1538
腾讯	-1539
巨大	-1540
山西	-1541
适应	-1542
疾病	-1543
优惠	-1544
良好	-1545
了解到	-1546
前往	-1547
履行	-1548
gm	-1549
民生	-1550
开出	-1551
感受	-1552
联盟	-1553
一带	-1554
机器人	-1555
合法	-1556
就在	-1557
多家	-1558
国主义	-1559
电力	-1560
该公司	-1561
掌握	-1562
决赛	-1563
作业	-1564
所谓	-1565
正确	-1566
达成	-1567
期货	-1568
广西	-1569
同学	-1570
传承	-1571
红色	-1572
大众	-1573
气象	-1574
st	-1575
一切	-1576
一条	-1577
义务	-1578
有着	-1579
面的	-1580
一场	-1581
享受	-1582
就能	-1583
足球	-1584
诈骗	-1585
终于	-1586
深刻	-1587
空气	-1588
样的	-1589
整治	-1590
纪念	-1591
共有	-1592
赛事	-1593
本身	-1594
新疆	-1595
性和	-1596
获悉	-1597
已有	-1598
le	-1599
父亲	-1600
业内	-1601
你的	-1602
类似	-1603
局长	-1604
进步	-1605
迎来	-1606
餐饮	-1607
供给	-1608
接触	-1609
表明	-1610
对手	-1611
在线	-1612
标签	-1613
场所	-1614
日至	-1615
供应链	-1616
定位	-1617
测试	-1618
首席	-1619
唯一	-1620
今日	-1621
想到	-1622
构成	-1623
一代	-1624
妇女	-1625
体制	-1626
母亲	-1627
安徽	-1628
展现	-1629
百分点	-1630
开启	-1631
即将	-1632
赛季	-1633
最低	-1634
十二	-1635
共产党	-1636
方便	-1637
习惯	-1638
旅客	-1639
》、	-1640
众多	-1641
女性	-1642
ac	-1643
订单	-1644
配套	-1645
发放	-1646
相互	-1647
令人	-1648
简称	-1649
违规	-1650
释放	-1651
房屋	-1652
门店	-1653
运用	-1654
实力	-1655
某某	-1656
高级	-1657
的主	-1658
阿里	-1659
相应	-1660
遇到	-1661
对象	-1662
转变	-1663
危险	-1664
女儿	-1665
起了	-1666
各个	-1667
不同的	-1668
将会	-1669
国民	-1670
新区	-1671
典型	-1672
个百分点	-1673
美联储	-1674
阶级	-1675
友好	-1676
博物馆	-1677
人在	-1678
女子	-1679
坚定	-1680
行的	-1681
嫌疑	-1682
库存	-1683
考试	-1684
转化	-1685
纪录	-1686
经济发展	-1687
》。	-1688
真的	-1689
城区	-1690
进展	-1691
▁三	-1692
于是	-1693
赔偿	-1694
药品	-1695
课程	-1696
例如	-1697
语言	-1698
地区的	-1699
纳入	-1700
特斯拉	-1701
行业的	-1702
法规	-1703
院长	-1704
生的	-1705
加上	-1706
司机	-1707
澳大	-1708
照片	-1709
总结	-1710
判决	-1711
让人	-1712
接近	-1713
et	-1714
问题的	-1715
都不	-1716
成熟	-1717
使得	-1718
比亚	-1719
行情	-1720
估值	-1721
债券	-1722
园区	-1723
▁据了解	-1724
它的	-1725
武器	-1726
物业	-1727
队的	-1728
路线	-1729
月底	-1730
的地方	-1731
东北	-1732
统筹	-1733
回到	-1734
收到	-1735
面向	-1736
讲话	-1737
便利	-1738
密切	-1739
演出	-1740
签订	-1741
一方面	-1742
海洋	-1743
”(	-1744
通报	-1745
也将	-1746
的市场	-1747
实际上	-1748
龙头	-1749
工艺	-1750
一是	-1751
追求	-1752
咖啡	-1753
对接	-1754
河南	-1755
三大	-1756
很快	-1757
的企业	-1758
评论	-1759
承诺	-1760
之路	-1761
表演	-1762
转移	-1763
福利	-1764
医学	-1765
走进	-1766
年轻人	-1767
葡萄	-1768
做出	-1769
紧张	-1770
通信	-1771
法官	-1772
他在	-1773
事务	-1774
ro	-1775
缺乏	-1776
市委	-1777
公安局	-1778
债务	-1779
收费	-1780
西部	-1781
阅读	-1782
人物	-1783
扶贫	-1784
的中	-1785
整合	-1786
机遇	-1787
百姓	-1788
gmw	-1789
▁作为	-1790
出发	-1791
充满	-1792
自我	-1793
队员	-1794
处置	-1795
组合	-1796
防范	-1797
并非	-1798
当事	-1799
更为	-1800
娱乐	-1801
大多数	-1802
与此	-1803
涉嫌	-1804
人群	-1805
官员	-1806
名单	-1807
生态环境	-1808
潜力	-1809
上下	-1810
热情	-1811
取消	-1812
十年	-1813
代表团	-1814
出现了	-1815
▁刘	-1816
打开	-1817
el	-1818
▁不过	-1819
高达	-1820
资格	-1821
演员	-1822
欧盟	-1823
即使	-1824
标志	-1825
修复	-1826
充电	-1827
声音	-1828
人民共和国	-1829
还将	-1830
交所	-1831
波动	-1832
年初	-1833
长江	-1834
马克	-1835
农产品	-1836
国有	-1837
权利	-1838
克兰	-1839
伟大	-1840
可持续	-1841
通胀	-1842
全年	-1843
江西	-1844
民营	-1845
物资	-1846
带着	-1847
事情	-1848
总裁	-1849
清楚	-1850
放在	-1851
成就	-1852
日的	-1853
长的	-1854
脱贫	-1855
▁P	-1856
央行	-1857
自治区	-1858
非洲	-1859
确认	-1860
担心	-1861
冲击	-1862
不久	-1863
政协	-1864
小学	-1865
国防	-1866
提到	-1867
财产	-1868
创始	-1869
年龄	-1870
变得	-1871
拍摄	-1872
大学生	-1873
上海市	-1874
感谢	-1875
发出	-1876
中国人民	-1877
紧急	-1878
性能	-1879
英雄	-1880
刚刚	-1881
下了	-1882
冲突	-1883
考核	-1884
养殖	-1885
陆续	-1886
青少年	-1887
自行	-1888
明星	-1889
在这	-1890
航天	-1891
批准	-1892
物质	-1893
工商	-1894
广场	-1895
主要是	-1896
症状	-1897
▁据悉	-1898
南部	-1899
的不	-1900
背后	-1901
关心	-1902
新能源汽车	-1903
一旦	-1904
监会	-1905
较为	-1906
化解	-1907
依据	-1908
平衡	-1909
法庭	-1910
强的	-1911
股份有限公司	-1912
并在	-1913
隐患	-1914
到底	-1915
或许	-1916
带领	-1917
快递	-1918
一度	-1919
十四	-1920
ch	-1921
市值	-1922
ww	-1923
实体	-1924
更新	-1925
奋斗	-1926
预防	-1927
事项	-1928
寻找	-1929
预警	-1930
类型	-1931
山区	-1932
外国	-1933
日下午	-1934
乌克兰	-1935
家人	-1936
效应	-1937
依托	-1938
认定	-1939
海南	-1940
车的	-1941
也要	-1942
城乡	-1943
时刻	-1944
份额	-1945
▁M	-1946
日上午	-1947
高于	-1948
人民群众	-1949
后续	-1950
账户	-1951
反应	-1952
西安	-1953
光伏	-1954
哪些	-1955
分析师	-1956
临时	-1957
隔离	-1958
一带一路	-1959
周年	-1960
联赛	-1961
判断	-1962
活力	-1963
卫星	-1964
兴趣	-1965
中新	-1966
回家	-1967
平安	-1968
同意	-1969
俱乐	-1970
妈妈	-1971
公平	-1972
开幕	-1973
审判	-1974
学术	-1975
与此同时	-1976
走向	-1977
志愿者	-1978
思考	-1979
西方	-1980
▁他	-1981
参观	-1982
风格	-1983
著名	-1984
们的	-1985
教练	-1986
居住	-1987
》(	-1988
公众号	-1989
城镇	-1990
▁有	-1991
挖掘	-1992
威胁	-1993
差异	-1994
▁当	-1995
俱乐部	-1996
驱动	-1997
活跃	-1998
乡村振兴	-1999
成效	-2000
秩序	-2001
校园	-2002
满意	-2003
着力	-2004
之下	-2005
文艺	-2006
三季度	-2007
主办	-2008
▁---	-2009
派出所	-2010
气温	-2011
临床	-2012
审批	-2013
官兵	-2014
展览	-2015
难题	-2016
有利于	-2017
是中国	-2018
健全	-2019
大队	-2020
争取	-2021
时的	-2022
习近平总书记	-2023
那个	-2024
十八	-2025
段时间	-2026
明年	-2027
秘书	-2028
大数据	-2029
陕西	-2030
签署	-2031
想要	-2032
联动	-2033
▁陈	-2034
一系列	-2035
就有	-2036
CE	-2037
主持	-2038
但在	-2039
核酸	-2040
旗下	-2041
导演	-2042
破坏	-2043
角色	-2044
总额	-2045
oo	-2046
持有	-2047
新冠肺炎	-2048
副主任	-2049
帝国主义	-2050
祖国	-2051
信号	-2052
理财	-2053
商家	-2054
解决方案	-2055
尼亚	-2056
万辆	-2057
运动员	-2058
▁北京	-2059
分类	-2060
国外	-2061
html	-2062
创建	-2063
舞台	-2064
停止	-2065
晚上	-2066
以上的	-2067
会有	-2068
提示	-2069
效益	-2070
住宅	-2071
走出	-2072
引进	-2073
把握	-2074
完整	-2075
初步	-2076
re	-2077
嫌疑人	-2078
准确	-2079
公交	-2080
并未	-2081
当地时间	-2082
并不是	-2083
的历史	-2084
飞行	-2085
武装	-2086
在北京	-2087
全体	-2088
湖南	-2089
整改	-2090
云南	-2091
境外	-2092
](//	-2093
研究所	-2094
攻坚	-2095
会员	-2096
两岸	-2097
不够	-2098
赛道	-2099
国产	-2100
排放	-2101
上周	-2102
补充	-2103
两人	-2104
刑事	-2105
老板	-2106
强烈	-2107
四个	-2108
有序	-2109
首都	-2110
购物	-2111
手术	-2112
地说	-2113
审查	-2114
停车	-2115
基因	-2116
反弹	-2117
回答	-2118
厂商	-2119
接到	-2120
幼儿	-2121
下去	-2122
▁大	-2123
人民政府	-2124
合作社	-2125
动态	-2126
氛围	-2127
年以来	-2128
新兴	-2129
京东	-2130
都要	-2131
特征	-2132
十一	-2133
民间	-2134
警察	-2135
禁止	-2136
不好	-2137
在此	-2138
遭遇	-2139
有力	-2140
谈判	-2141
科技创新	-2142
条例	-2143
不了	-2144
层面	-2145
也就是	-2146
也没有	-2147
一边	-2148
的事情	-2149
森林	-2150
▁本报讯	-2151
采访时	-2152
获取	-2153
甘肃	-2154
循环	-2155
家里	-2156
提出了	-2157
内蒙古	-2158
审理	-2159
当年	-2160
优先	-2161
予以	-2162
事实上	-2163
尝试	-2164
动作	-2165
天的	-2166
大陆	-2167
营造	-2168
独特	-2169
产业发展	-2170
注重	-2171
则是	-2172
站在	-2173
气候	-2174
激励	-2175
确诊病例	-2176
药物	-2177
下一步	-2178
粉丝	-2179
称为	-2180
建设的	-2181
防止	-2182
会的	-2183
创始人	-2184
是个	-2185
分配	-2186
巴西	-2187
美丽	-2188
走势	-2189
大使	-2190
是一种	-2191
思维	-2192
旅行	-2193
的生活	-2194
军队	-2195
就可以	-2196
一定要	-2197
将继续	-2198
融入	-2199
拒绝	-2200
地的	-2201
青岛	-2202
中共	-2203
pp	-2204
房子	-2205
多名	-2206
ET	-2207
对话	-2208
就像	-2209
租赁	-2210
尚未	-2211
尽快	-2212
共建	-2213
进程	-2214
等问题	-2215
地震	-2216
就要	-2217
本土	-2218
的基础上	-2219
会在	-2220
▁美国	-2221
、“	-2222
十五	-2223
ing	-2224
交付	-2225
最佳	-2226
逻辑	-2227
十三	-2228
违反	-2229
安装	-2230
万美元	-2231
小米	-2232
适合	-2233
做法	-2234
西亚	-2235
财富	-2236
蔬菜	-2237
使命	-2238
定的	-2239
第一个	-2240
更大	-2241
充分发挥	-2242
复苏	-2243
态势	-2244
图书	-2245
营业收入	-2246
要素	-2247
宏观	-2248
量的	-2249
分布	-2250
今后	-2251
等等	-2252
少数	-2253
化学	-2254
证据	-2255
线路	-2256
审核	-2257
发电	-2258
抖音	-2259
光明	-2260
一体化	-2261
中华人民共和国	-2262
一九	-2263
变成	-2264
妻子	-2265
更好地	-2266
尊重	-2267
常态	-2268
和社会	-2269
的需求	-2270
详细	-2271
举报	-2272
出租	-2273
现有	-2274
hon	-2275
澳大利亚	-2276
美好	-2277
实验室	-2278
也可以	-2279
合计	-2280
辽宁	-2281
ab	-2282
素质	-2283
去了	-2284
植物	-2285
知识产权	-2286
放弃	-2287
的价格	-2288
的原因	-2289
文旅	-2290
北部	-2291
搭建	-2292
受伤	-2293
考察	-2294
竞争力	-2295
专利	-2296
收获	-2297
日益	-2298
延续	-2299
小的	-2300
南方	-2301
地铁	-2302
还能	-2303
▁随着	-2304
良好的	-2305
层次	-2306
当事人	-2307
的技术	-2308
背景下	-2309
券商	-2310
有关部门	-2311
博士	-2312
积累	-2313
协商	-2314
。《	-2315
支出	-2316
乡镇	-2317
批评	-2318
本地	-2319
太阳	-2320
巨大的	-2321
能否	-2322
依靠	-2323
上线	-2324
灾害	-2325
同比下降	-2326
在一起	-2327
广东省	-2328
招聘	-2329
的数据	-2330
生意	-2331
这位	-2332
直到	-2333
侵略	-2334
的心	-2335
争议	-2336
检验	-2337
的关键	-2338
回归	-2339
一轮	-2340
金属	-2341
大赛	-2342
图片	-2343
二手	-2344
而在	-2345
许可	-2346
申报	-2347
加息	-2348
增加了	-2349
身上	-2350
不管	-2351
高峰	-2352
思路	-2353
管控	-2354
影视	-2355
超级	-2356
泰国	-2357
》、《	-2358
身边	-2359
小说	-2360
▁自	-2361
做了	-2362
储备	-2363
别人	-2364
is	-2365
检察院	-2366
认可	-2367
大利	-2368
党组	-2369
定期	-2370
五年	-2371
无论是	-2372
主管	-2373
允许	-2374
服务的	-2375
奖号	-2376
局面	-2377
三角	-2378
爆发	-2379
辖区	-2380
作战	-2381
分为	-2382
吉林	-2383
接种	-2384
以为	-2385
范围内	-2386
取得了	-2387
月的	-2388
未成	-2389
▁该	-2390
显然	-2391
孩子们	-2392
技术的	-2393
彻底	-2394
在这里	-2395
多样	-2396
机动	-2397
东部	-2398
错误	-2399
用的	-2400
识别	-2401
预算	-2402
都能	-2403
前的	-2404
签约	-2405
这也是	-2406
门口	-2407
职责	-2408
通常	-2409
公斤	-2410
更高	-2411
本期	-2412
热点	-2413
作家	-2414
中学	-2415
梦想	-2416
学者	-2417
的要求	-2418
激烈	-2419
之中	-2420
虚拟	-2421
职务	-2422
列车	-2423
▁-	-2424
跨境	-2425
受理	-2426
业主	-2427
龙江	-2428
大大	-2429
大规模	-2430
还会	-2431
头部	-2432
无疑	-2433
各方	-2434
路径	-2435
的好	-2436
阿尔	-2437
▁B	-2438
影片	-2439
几天	-2440
激发	-2441
经济社会	-2442
管理局	-2443
在内的	-2444
报名	-2445
凌晨	-2446
乘客	-2447
’,	-2448
//	-2449
▁同时	-2450
股市	-2451
子公司	-2452
更有	-2453
等待	-2454
意大利	-2455
赋能	-2456
支部	-2457
发言人	-2458
有一个	-2459
巩固	-2460
总是	-2461
中方	-2462
电脑	-2463
东南	-2464
马克思	-2465
形态	-2466
版权	-2467
不错	-2468
经典	-2469
完成了	-2470
天然气	-2471
APP	-2472
援助	-2473
内地	-2474
shtml	-2475
▁我们	-2476
至于	-2477
ID	-2478
幅度	-2479
其次	-2480
学会	-2481
包含	-2482
发布会	-2483
遗产	-2484
永远	-2485
▁以	-2486
中国特色	-2487
世界杯	-2488
持股	-2489
煤炭	-2490
意外	-2491
项目的	-2492
不知道	-2493
查看	-2494
省委	-2495
包装	-2496
排查	-2497
生活的	-2498
是什么	-2499
担当	-2500
固定	-2501
收盘	-2502
以下简称	-2503
决心	-2504
宇宙	-2505
文化的	-2506
扩张	-2507
的老	-2508
原料	-2509
缓解	-2510
差距	-2511
参赛	-2512
可是	-2513
打破	-2514
▁T	-2515
下游	-2516
全新	-2517
较高	-2518
广播	-2519
阳市	-2520
中有	-2521
和谐	-2522
救助	-2523
纽约	-2524
回落	-2525
座谈	-2526
招商	-2527
合格	-2528
给了	-2529
的行为	-2530
地下	-2531
跌幅	-2532
万亿元	-2533
冬奥	-2534
兄弟	-2535
得到了	-2536
创意	-2537
原来	-2538
率为	-2539
▁如果	-2540
▁为了	-2541
一份	-2542
主力	-2543
青海	-2544
科创	-2545
开工	-2546
他人	-2547
学科	-2548
绝对	-2549
前期	-2550
th	-2551
日内	-2552
美的	-2553
率先	-2554
首个	-2555
巨头	-2556
监控	-2557
心里	-2558
读书	-2559
终端	-2560
规律	-2561
▁周	-2562
第五	-2563
公民	-2564
玉米	-2565
说法	-2566
国家和	-2567
智能化	-2568
协作	-2569
选举	-2570
长沙	-2571
联邦	-2572
休闲	-2573
前景	-2574
命运	-2575
am	-2576
每一个	-2577
有可能	-2578
想象	-2579
相关负责人	-2580
的经济	-2581
欧元	-2582
凭借	-2583
点击	-2584
共计	-2585
下半年	-2586
还没有	-2587
形成了	-2588
健身	-2589
难度	-2590
连接	-2591
每日	-2592
hone	-2593
助于	-2594
带来了	-2595
暴雨	-2596
等多	-2597
▁——	-2598
导体	-2599
代理	-2600
传递	-2601
个股	-2602
帮扶	-2603
防护	-2604
购房	-2605
学家	-2606
资本市场	-2607
▁近年来	-2608
”**	-2609
省级	-2610
电信	-2611
营养	-2612
为此	-2613
信息化	-2614
证监会	-2615
即便	-2616
毕业生	-2617
普及	-2618
中华民族	-2619
tp	-2620
举行的	-2621
看好	-2622
超市	-2623
截至目前	-2624
经济的	-2625
西藏	-2626
发布了	-2627
上年	-2628
BA	-2629
内外	-2630
出生	-2631
防治	-2632
大概	-2633
细节	-2634
是对	-2635
呼吁	-2636
名为	-2637
致力	-2638
总局	-2639
也能	-2640
as	-2641
公安机关	-2642
团体	-2643
时报	-2644
足够	-2645
两次	-2646
手续	-2647
有机	-2648
千万	-2649
金融机构	-2650
日子	-2651
时尚	-2652
期限	-2653
刺激	-2654
是不	-2655
硬件	-2656
地点	-2657
高铁	-2658
将其	-2659
水利	-2660
场比赛	-2661
澳门	-2662
是因为	-2663
相关的	-2664
权威	-2665
纪委	-2666
提交	-2667
观念	-2668
退休	-2669
领导人	-2670
报警	-2671
新技术	-2672
子女	-2673
细胞	-2674
的目标	-2675
经销	-2676
竞赛	-2677
送达	-2678
相关部门	-2679
陷入	-2680
哪里	-2681
多人	-2682
精彩	-2683
混合	-2684
认知	-2685
报道称	-2686
万余	-2687
承认	-2688
约为	-2689
原油	-2690
aper	-2691
业内人士	-2692
半导体	-2693
很多人	-2694
微信公众号	-2695
理由	-2696
依旧	-2697
的投资	-2698
色列	-2699
获得了	-2700
重组	-2701
从业	-2702
程度上	-2703
专题	-2704
文字	-2705
由此	-2706
三十	-2707
厦门	-2708
才是	-2709
这两	-2710
回升	-2711
句话	-2712
党中央	-2713
反复	-2714
投诉	-2715
强制	-2716
损害	-2717
浙江省	-2718
政策的	-2719
赢得	-2720
家属	-2721
树立	-2722
海关	-2723
......”	-2724
▁除了	-2725
自觉	-2726
协助	-2727
到达	-2728
为例	-2729
障碍	-2730
一项	-2731
奥运会	-2732
▁小	-2733
走访	-2734
战士	-2735
依赖	-2736
搜索	-2737
受益	-2738
阳光	-2739
同步	-2740
的风险	-2741
和其他	-2742
发射	-2743
转让	-2744
青春	-2745
让我	-2746
震荡	-2747
温度	-2748
必然	-2749
窗口	-2750
奖励	-2751
丰富的	-2752
各自	-2753
回忆	-2754
早在	-2755
本届	-2756
比为	-2757
这也	-2758
视为	-2759
交警	-2760
黑龙江	-2761
心的	-2762
已成为	-2763
讲述	-2764
印象	-2765
▁年	-2766
灵活	-2767
发起	-2768
道德	-2769
等方式	-2770
哈尔	-2771
发达	-2772
可见	-2773
存款	-2774
财报	-2775
读者	-2776
摄影	-2777
▁值得	-2778
车站	-2779
人生	-2780
▁G	-2781
的精神	-2782
paper	-2783
对其	-2784
收集	-2785
改进	-2786
诸多	-2787
出售	-2788
流通	-2789
当下	-2790
****	-2791
很好	-2792
立法	-2793
iP	-2794
响应	-2795
。」	-2796
海军	-2797
人力	-2798
的第一	-2799
交易所	-2800
http	-2801
核酸检测	-2802
在全国	-2803
未能	-2804
下调	-2805
DP	-2806
一张	-2807
在美国	-2808
ol	-2809
去年同期	-2810
情况下	-2811
com	-2812
名字	-2813
://	-2814
平稳	-2815
IPO	-2816
钢铁	-2817
质疑	-2818
间的	-2819
医保	-2820
每次	-2821
对比	-2822
友谊	-2823
品类	-2824
百度	-2825
老年人	-2826
加拿	-2827
轨道	-2828
相结合	-2829
营商	-2830
玻璃	-2831
外资	-2832
清理	-2833
供应商	-2834
负担	-2835
万亩	-2836
信任	-2837
抓住	-2838
科普	-2839
罚款	-2840
实在	-2841
起诉	-2842
修改	-2843
组建	-2844
阿拉	-2845
这项	-2846
发力	-2847
熟悉	-2848
清洁	-2849
导向	-2850
休息	-2851
办事	-2852
港元	-2853
监察	-2854
过的	-2855
房企	-2856
在这个	-2857
化工	-2858
引入	-2859
的一些	-2860
常委会	-2861
防疫	-2862
毕竟	-2863
仍在	-2864
以往	-2865
对中国	-2866
接待	-2867
的安全	-2868
集成	-2869
变革	-2870
航班	-2871
有点	-2872
车企	-2873
方位	-2874
毛主席	-2875
里面	-2876
百年	-2877
路上	-2878
意思	-2879
认证	-2880
总部	-2881
买入	-2882
当日	-2883
美术	-2884
以色列	-2885
理事	-2886
的可能	-2887
紧密	-2888
共识	-2889
不开	-2890
ETF	-2891
了中国	-2892
工作者	-2893
ion	-2894
达到了	-2895
大小	-2896
的国家	-2897
实习	-2898
最好	-2899
ed	-2900
今年以来	-2901
政府的	-2902
主流	-2903
职能	-2904
伊朗	-2905
均为	-2906
假期	-2907
服务中心	-2908
一定的	-2909
多了	-2910
自动驾驶	-2911
大批	-2912
热烈	-2913
退出	-2914
残疾	-2915
一季度	-2916
感染者	-2917
改革开放	-2918
和发展	-2919
种子	-2920
元素	-2921
▁##	-2922
秘书长	-2923
农户	-2924
海上	-2925
面上	-2926
毛利率	-2927
记忆	-2928
出来的	-2929
年内	-2930
清晰	-2931
最多	-2932
发动机	-2933
聚集	-2934
”;	-2935
情感	-2936
想法	-2937
观看	-2938
维修	-2939
开通	-2940
一直在	-2941
失败	-2942
她们	-2943
作风	-2944
会长	-2945
销售额	-2946
部件	-2947
民事	-2948
计算机	-2949
收益率	-2950
回购	-2951
信贷	-2952
流行	-2953
?**	-2954
最好的	-2955
替代	-2956
第一时间	-2957
攻击	-2958
致力于	-2959
作物	-2960
旨在	-2961
▁###	-2962
途径	-2963
全民	-2964
审计	-2965
仍有	-2966
当中	-2967
国庆	-2968
科学家	-2969
携手	-2970
的水	-2971
拿到	-2972
鉴定	-2973
定制	-2974
济南	-2975
研究中心	-2976
客观	-2977
那样	-2978
科学院	-2979
如下	-2980
▁二	-2981
分局	-2982
看看	-2983
移民	-2984
的公司	-2985
面前	-2986
工作中	-2987
市长	-2988
台风	-2989
场的	-2990
框架	-2991
看着	-2992
整理	-2993
而不是	-2994
服装	-2995
不得不	-2996
第三方	-2997
郑州	-2998
信托	-2999
原本	-3000
的核心	-3001
大约	-3002
通讯员	-3003
月初	-3004
占据	-3005
考虑到	-3006
同事	-3007
呼吸	-3008
回来	-3009
过来	-3010
马斯	-3011
营商环境	-3012
CEO	-3013
导弹	-3014
公布的	-3015
就不	-3016
的作用	-3017
生存	-3018
本周	-3019
再度	-3020
的能力	-3021
延伸	-3022
城市的	-3023
新建	-3024
也许	-3025
东京	-3026
,**	-3027
江苏省	-3028
▁与	-3029
服务业	-3030
基础上	-3031
关联	-3032
名的	-3033
首批	-3034
世界上	-3035
总量	-3036
繁荣	-3037
立案	-3038
央视	-3039
公司在	-3040
出去	-3041
线索	-3042
扶持	-3043
了一些	-3044
反馈	-3045
票房	-3046
寻求	-3047
App	-3048
下行	-3049
公务	-3050
色的	-3051
温暖	-3052
人均	-3053
农民工	-3054
活动的	-3055
节约	-3056
查处	-3057
▁高	-3058
元的	-3059
舆论	-3060
国内外	-3061
出现在	-3062
听到	-3063
一片	-3064
▁上	-3065
加拿大	-3066
能量	-3067
相同	-3068
经销商	-3069
宪法	-3070
女孩	-3071
已被	-3072
校长	-3073
球迷	-3074
▁杨	-3075
▁虽然	-3076
早期	-3077
眼睛	-3078
日讯	-3079
山东省	-3080
业态	-3081
生产的	-3082
国的	-3083
经济增长	-3084
加坡	-3085
用地	-3086
关闭	-3087
担忧	-3088
可能是	-3089
”)	-3090
红包	-3091
宁波	-3092
让我们	-3093
在今年	-3094
华人	-3095
可以说	-3096
火箭	-3097
一个月	-3098
暂停	-3099
有助于	-3100
怎样	-3101
每月	-3102
全世界	-3103
个性	-3104
房产	-3105
纪律	-3106
各大	-3107
谨慎	-3108
提供的	-3109
一级	-3110
货物	-3111
AR	-3112
GDP	-3113
配备	-3114
在大	-3115
印发	-3116
亮相	-3117
回报	-3118
为何	-3119
诊断	-3120
爱好	-3121
▁L	-3122
节奏	-3123
副主席	-3124
借助	-3125
定价	-3126
子的	-3127
件事	-3128
不及	-3129
垄断	-3130
食物	-3131
扎实	-3132
流动性	-3133
生动	-3134
一周	-3135
中间	-3136
未成年人	-3137
建立了	-3138
税务	-3139
我觉得	-3140
会见	-3141
提高了	-3142
▁然而	-3143
售价	-3144
年上半年	-3145
本质	-3146
话题	-3147
荣誉	-3148
研究员	-3149
的机会	-3150
三是	-3151
学员	-3152
▁第二	-3153
的生产	-3154
不知	-3155
原告	-3156
黄河	-3157
是不是	-3158
幼儿园	-3159
万人次	-3160
权力	-3161
适当	-3162
保留	-3163
用车	-3164
全方位	-3165
党建	-3166
家中	-3167
美国的	-3168
视觉	-3169
各界	-3170
异常	-3171
冰雪	-3172
委托	-3173
比赛中	-3174
投放	-3175
副书记	-3176
丈夫	-3177
局势	-3178
市政府	-3179
▁前	-3180
地球	-3181
清单	-3182
地上	-3183
转向	-3184
的内容	-3185
那里	-3186
查询	-3187
美食	-3188
博览	-3189
更好的	-3190
口罩	-3191
立足	-3192
西班	-3193
实时	-3194
的故事	-3195
区间	-3196
外部	-3197
▁中新社	-3198
沈阳	-3199
减持	-3200
西班牙	-3201
长城	-3202
几十	-3203
热门	-3204
考生	-3205
高兴	-3206
讲解	-3207
顾问	-3208
曝光	-3209
百万	-3210
乐观	-3211
这家	-3212
高温	-3213
强大	-3214
的社会	-3215
这场	-3216
推行	-3217
一辆	-3218
▁对	-3219
平时	-3220
爱心	-3221
的文化	-3222
模拟	-3223
回收	-3224
物品	-3225
发生了	-3226
结婚	-3227
玩家	-3228
当代	-3229
车间	-3230
日报道	-3231
随时	-3232
在接受	-3233
试图	-3234
标的	-3235
中美	-3236
老年	-3237
复兴	-3238
门槛	-3239
合伙	-3240
见的	-3241
大多	-3242
iv	-3243
快乐	-3244
不用	-3245
较低	-3246
主导	-3247
军人	-3248
受害	-3249
仅仅	-3250
影响力	-3251
短视频	-3252
现状	-3253
白酒	-3254
机动车	-3255
袭击	-3256
▁此次	-3257
不动	-3258
冬季	-3259
低碳	-3260
马上	-3261
领导干部	-3262
开拓	-3263
犯罪嫌疑人	-3264
和服务	-3265
个体	-3266
危害	-3267
我们要	-3268
暂时	-3269
询问	-3270
明白	-3271
十大	-3272
凝聚	-3273
降雨	-3274
的两	-3275
顾客	-3276
税收	-3277
恒大	-3278
某些	-3279
的政策	-3280
接下来	-3281
补偿	-3282
精品	-3283
都没有	-3284
也就	-3285
党和	-3286
传媒	-3287
输入	-3288
虚假	-3289
治安	-3290
IT	-3291
评级	-3292
”,“	-3293
房价	-3294
▁R	-3295
此后	-3296
县委	-3297
更大的	-3298
余额	-3299
昆明	-3300
涵盖	-3301
成为了	-3302
巴黎	-3303
没想到	-3304
另一个	-3305
经贸	-3306
暴力	-3307
不超过	-3308
通用	-3309
西南	-3310
中小企业	-3311
新高	-3312
很大的	-3313
us	-3314
汇率	-3315
等领域	-3316
炒股	-3317
算法	-3318
▁D	-3319
▁马	-3320
苏州	-3321
爆炸	-3322
注意的是	-3323
创业板	-3324
照顾	-3325
实地	-3326
国家级	-3327
境内	-3328
以外	-3329
▁另外	-3330
to	-3331
消除	-3332
中国特色社会主义	-3333
万股	-3334
不在	-3335
电站	-3336
还可以	-3337
也很	-3338
承包	-3339
越来越多	-3340
招生	-3341
市场上	-3342
太平	-3343
会谈	-3344
外界	-3345
西北	-3346
推出了	-3347
不上	-3348
提出的	-3349
不良	-3350
开设	-3351
之所以	-3352
感受到	-3353
课堂	-3354
▁由于	-3355
组织的	-3356
ce	-3357
到位	-3358
指示	-3359
情形	-3360
感情	-3361
自信	-3362
曾在	-3363
茅台	-3364
下一	-3365
CP	-3366
不出	-3367
爸爸	-3368
安置	-3369
人次	-3370
政务	-3371
证实	-3372
合规	-3373
院士	-3374
装置	-3375
群众的	-3376
一百	-3377
文化和	-3378
马克思主义	-3379
泽东	-3380
负债	-3381
归母	-3382
践行	-3383
极大	-3384
▁F	-3385
现在的	-3386
二级	-3387
腐败	-3388
办案	-3389
伤害	-3390
II	-3391
放缓	-3392
中介	-3393
河南省	-3394
食品安全	-3395
即可	-3396
未来的	-3397
家居	-3398
我是	-3399
自行车	-3400
所得	-3401
外贸	-3402
埔寨	-3403
柬埔寨	-3404
高等	-3405
哈尔滨	-3406
毛泽东	-3407
▁的	-3408
违法行为	-3409
新加坡	-3410
行驶	-3411
比亚迪	-3412
注意到	-3413
市的	-3414
我们在	-3415
辅助	-3416
我想	-3417
做的	-3418
▁今天	-3419
显得	-3420
▁截至	-3421
贯彻落实	-3422
互相	-3423
说的	-3424
标准化	-3425
此时	-3426
加剧	-3427
论文	-3428
斯科	-3429
外交部	-3430
题材	-3431
倡议	-3432
上游	-3433
斯特	-3434
过了	-3435
发布会上	-3436
河北省	-3437
度的	-3438
毫米	-3439
主播	-3440
强劲	-3441
维权	-3442
反而	-3443
弘扬	-3444
立场	-3445
院校	-3446
拉克	-3447
的服务	-3448
常务	-3449
账号	-3450
历史上	-3451
ST	-3452
人为	-3453
万平方米	-3454
解读	-3455
到来	-3456
年至	-3457
最为	-3458
的消息	-3459
梳理	-3460
前进	-3461
据悉	-3462
不住	-3463
接着	-3464
em	-3465
婚姻	-3466
节能	-3467
中国共产党	-3468
加盟	-3469
的关系	-3470
要在	-3471
制品	-3472
警告	-3473
让他	-3474
的信息	-3475
拍卖	-3476
涉案	-3477
告知	-3478
潜在	-3479
不多	-3480
意愿	-3481
参加了	-3482
担保	-3483
衣服	-3484
是有	-3485
一个人	-3486
开了	-3487
这就是	-3488
轻松	-3489
所有的	-3490
便捷	-3491
ad	-3492
有时	-3493
本人	-3494
的一种	-3495
两名	-3496
受访	-3497
研讨	-3498
投票	-3499
野生	-3500
▁新京	-3501
得知	-3502
流入	-3503
用品	-3504
经费	-3505
ber	-3506
企业和	-3507
的研究	-3508
会议上	-3509
iPhone	-3510
北方	-3511
不如	-3512
合法权益	-3513
的相关	-3514
验证	-3515
生成	-3516
董事会	-3517
▁据介绍	-3518
她说	-3519
物理	-3520
落后	-3521
好了	-3522
工程师	-3523
传统文化	-3524
全国人大	-3525
挂牌	-3526
增收	-3527
之际	-3528
夜间	-3529
两位	-3530
专注	-3531
神经	-3532
的国际	-3533
的规定	-3534
上一	-3535
企业家	-3536
十九	-3537
合肥	-3538
ent	-3539
考验	-3540
他们在	-3541
非遗	-3542
储能	-3543
电动车	-3544
稳步	-3545
官网	-3546
入境	-3547
地块	-3548
一提	-3549
共同体	-3550
红利	-3551
不利	-3552
强大的	-3553
适用	-3554
业务的	-3555
坐在	-3556
庆祝	-3557
家电	-3558
氧化	-3559
回复	-3560
搭载	-3561
车主	-3562
的三	-3563
为核心	-3564
山市	-3565
)[	-3566
特朗	-3567
探讨	-3568
究竟	-3569
充足	-3570
平台的	-3571
通行	-3572
被告人	-3573
传统的	-3574
回顾	-3575
总工会	-3576
架构	-3577
叙利亚	-3578
家乡	-3579
ay	-3580
我在	-3581
四川省	-3582
孩子的	-3583
ode	-3584
星期	-3585
全程	-3586
版本	-3587
村里	-3588
我就	-3589
全县	-3590
港口	-3591
淘宝	-3592
多年来	-3593
周围	-3594
尽量	-3595
预约	-3596
遭到	-3597
为主题	-3598
支队	-3599
早已	-3600
注入	-3601
人和	-3602
失业	-3603
透明	-3604
高速公路	-3605
动员	-3606
▁*	-3607
私募	-3608
密集	-3609
这类	-3610
严重的	-3611
不起	-3612
天下	-3613
对应	-3614
比重	-3615
涨停	-3616
公积	-3617
运作	-3618
不大	-3619
In	-3620
延长	-3621
都市	-3622
劳动力	-3623
无人机	-3624
爱的	-3625
保健	-3626
生长	-3627
人员的	-3628
李某	-3629
看到了	-3630
关注的	-3631
细分	-3632
抵达	-3633
战胜	-3634
抓好	-3635
▁去年	-3636
月中	-3637
品牌的	-3638
平等	-3639
支援	-3640
困境	-3641
修订	-3642
内涵	-3643
魅力	-3644
im	-3645
交通运输	-3646
抓获	-3647
第六	-3648
乃至	-3649
极端	-3650
坚守	-3651
火灾	-3652
考古	-3653
有什么	-3654
▁据新华社	-3655
党支部	-3656
生育	-3657
十六	-3658
超越	-3659
结束后	-3660
两大	-3661
大模型	-3662
性质	-3663
▁这是	-3664
利好	-3665
公正	-3666
特朗普	-3667
并将	-3668
指引	-3669
um	-3670
上班	-3671
进攻	-3672
夫妻	-3673
两种	-3674
实质	-3675
买卖	-3676
外卖	-3677
真正的	-3678
配送	-3679
常委	-3680
干警	-3681
的基本	-3682
主张	-3683
的变化	-3684
公积金	-3685
势力	-3686
守护	-3687
的合作	-3688
当局	-3689
Ch	-3690
见证	-3691
月以来	-3692
前来	-3693
慢慢	-3694
自贸	-3695
博会	-3696
系统的	-3697
多年的	-3698
土壤	-3699
东盟	-3700
用电	-3701
加强对	-3702
年开始	-3703
老百姓	-3704
妇联	-3705
屏幕	-3706
▁黄	-3707
餐厅	-3708
相当于	-3709
开展了	-3710
演讲	-3711
开发商	-3712
百分之	-3713
最早	-3714
发的	-3715
高考	-3716
不确定	-3717
答案	-3718
可以在	-3719
▁「	-3720
而不	-3721
大国	-3722
OS	-3723
特区	-3724
前沿	-3725
巡视	-3726
▁W	-3727
细化	-3728
的原则	-3729
伦敦	-3730
家族	-3731
印尼	-3732
遵守	-3733
康复	-3734
长时间	-3735
外出	-3736
约定	-3737
原材料	-3738
得以	-3739
戏剧	-3740
在全球	-3741
社会的	-3742
舒适	-3743
中文	-3744
浪费	-3745
不太	-3746
相继	-3747
谈到	-3748
葡萄酒	-3749
级别	-3750
归母净利润	-3751
燃料	-3752
决议	-3753
高位	-3754
最后一	-3755
合约	-3756
增幅	-3757
高中	-3758
排除	-3759
走了	-3760
师傅	-3761
总监	-3762
调控	-3763
的结果	-3764
诉求	-3765
估计	-3766
杂志	-3767
四大	-3768
王某	-3769
将是	-3770
捐赠	-3771
并购	-3772
www	-3773
条件的	-3774
id	-3775
很少	-3776
安全生产	-3777
其余	-3778
朝阳	-3779
请求	-3780
劳动者	-3781
节点	-3782
裁判	-3783
跟踪	-3784
ot	-3785
送到	-3786
法定	-3787
返回	-3788
全区	-3789
遗址	-3790
是由	-3791
个别	-3792
户外	-3793
将成为	-3794
式的	-3795
客户端	-3796
进出口	-3797
互联	-3798
金牌	-3799
地面	-3800
▁昨日	-3801
▁国家	-3802
留下	-3803
结算	-3804
奥运	-3805
饮料	-3806
先行	-3807
解放军	-3808
减轻	-3809
匹配	-3810
总数	-3811
党委书记	-3812
同一	-3813
方针	-3814
爱国	-3815
场上	-3816
存量	-3817
ew	-3818
地质	-3819
使用的	-3820
重的	-3821
待遇	-3822
记得	-3823
每一	-3824
出一	-3825
小麦	-3826
补助	-3827
在新	-3828
dex	-3829
电视台	-3830
打算	-3831
亮点	-3832
亚马	-3833
污水	-3834
长安	-3835
频繁	-3836
基金会	-3837
叠加	-3838
进而	-3839
一提的是	-3840
源头	-3841
这一点	-3842
供图	-3843
▁其中	-3844
中国经济	-3845
▁四	-3846
清华	-3847
中东	-3848
水果	-3849
给我	-3850
身份证	-3851
步伐	-3852
公社	-3853
侵权	-3854
提起	-3855
吸引了	-3856
的支持	-3857
一段时间	-3858
常常	-3859
期内	-3860
人文	-3861
蛋白	-3862
正义	-3863
若干	-3864
网络安全	-3865
大师	-3866
▁对此	-3867
▁**“	-3868
借款	-3869
eb	-3870
可靠	-3871
恐怖	-3872
追究	-3873
油价	-3874
致富	-3875
离婚	-3876
科技有限公司	-3877
产值	-3878
描述	-3879
lo	-3880
克服	-3881
增值	-3882
师范	-3883
▁炒股	-3884
敌人	-3885
流域	-3886
加油	-3887
解决了	-3888
区块	-3889
积极性	-3890
货币政策	-3891
诞生	-3892
节日	-3893
留在	-3894
的东西	-3895
热爱	-3896
不仅是	-3897
法律法规	-3898
最初	-3899
▁H	-3900
社员	-3901
大气	-3902
线的	-3903
不但	-3904
档案	-3905
装修	-3906
和中国	-3907
沿海	-3908
证书	-3909
重要的是	-3910
汇报	-3911
审议	-3912
很有	-3913
从来	-3914
地理	-3915
督促	-3916
他表示	-3917
数字经济	-3918
目前的	-3919
进度	-3920
登陆	-3921
要把	-3922
东南亚	-3923
地图	-3924
看见	-3925
▁华	-3926
课题	-3927
常态化	-3928
备案	-3929
集团有限公司	-3930
国企	-3931
下载	-3932
供需	-3933
也被	-3934
以此	-3935
解除	-3936
强度	-3937
index	-3938
鲜明	-3939
电网	-3940
慈善	-3941
中新网	-3942
不可能	-3943
锻炼	-3944
大连	-3945
谷歌	-3946
等级	-3947
制裁	-3948
可持续发展	-3949
▁赵	-3950
后期	-3951
今年的	-3952
否则	-3953
的城市	-3954
也没	-3955
明天	-3956
这条	-3957
编制	-3958
出版社	-3959
载体	-3960
上去	-3961
省份	-3962
上门	-3963
情节	-3964
路段	-3965
小型	-3966
▁吴	-3967
草案	-3968
一部分	-3969
不仅仅	-3970
的学生	-3971
一流	-3972
病人	-3973
季节	-3974
时许	-3975
是为了	-3976
爱情	-3977
港股	-3978
变动	-3979
与中国	-3980
ig	-3981
条款	-3982
ag	-3983
之日起	-3984
深圳市	-3985
的形式	-3986
增量	-3987
人心	-3988
多位	-3989
领取	-3990
吃饭	-3991
研制	-3992
微软	-3993
打通	-3994
的过程	-3995
焦点	-3996
万元的	-3997
美团	-3998
亚马逊	-3999
主场	-4000
入选	-4001
开户	-4002
理性	-4003
马拉	-4004
▁尽管	-4005
评选	-4006
两天	-4007
▁N	-4008
合作伙伴	-4009
公示	-4010
时代的	-4011
商标	-4012
负面	-4013
产生的	-4014
场地	-4015
相应的	-4016
嘉宾	-4017
渗透	-4018
到的	-4019
舞蹈	-4020
▁如今	-4021
长三角	-4022
东风	-4023
元宇宙	-4024
第二次	-4025
有效的	-4026
已在	-4027
▁本报记者	-4028
华侨	-4029
TO	-4030
复工	-4031
失去	-4032
上诉	-4033
长春	-4034
逾期	-4035
合作的	-4036
兰州	-4037
湾区	-4038
市场监管	-4039
辅导	-4040
已经成为	-4041
严肃	-4042
特定	-4043
地方政府	-4044
广阔	-4045
将为	-4046
放松	-4047
out	-4048
中午	-4049
ur	-4050
还需要	-4051
新生	-4052
或是	-4053
本来	-4054
](/)	-4055
日晚间	-4056
艰苦	-4057
ail	-4058
单一	-4059
ook	-4060
合适	-4061
分散	-4062
游泳	-4063
网红	-4064
中国人	-4065
面临的	-4066
▁针对	-4067
用水	-4068
▁图为	-4069
开庭	-4070
数十	-4071
ir	-4072
外汇	-4073
艰难	-4074
算力	-4075
多项	-4076
肿瘤	-4077
他还	-4078
楼市	-4079
看出	-4080
也为	-4081
进行的	-4082
常规	-4083
快手	-4084
▁E	-4085
淘汰	-4086
五个	-4087
宁夏	-4088
赚钱	-4089
的态度	-4090
\*	-4091
动能	-4092
副部长	-4093
ind	-4094
模范	-4095
合力	-4096
张某	-4097
激动	-4098
突发	-4099
降至	-4100
生活中	-4101
定了	-4102
号召	-4103
不想	-4104
主营	-4105
不断提升	-4106
工作室	-4107
执行人	-4108
零部件	-4109
亚太	-4110
厚的	-4111
招股	-4112
衔接	-4113
这就	-4114
月至	-4115
规定的	-4116
本文	-4117
and	-4118
耕地	-4119
引擎	-4120
转换	-4121
畅通	-4122
部门的	-4123
媒体报道	-4124
夏季	-4125
将进一步	-4126
马来	-4127
空军	-4128
更换	-4129
景观	-4130
土耳	-4131
新一轮	-4132
入口	-4133
据了解	-4134
有很多	-4135
电梯	-4136
记者从	-4137
对抗	-4138
图书馆	-4139
这份	-4140
空中	-4141
辐射	-4142
集群	-4143
土耳其	-4144
管理的	-4145
成立了	-4146
宠物	-4147
无数	-4148
链接	-4149
本院	-4150
转型升级	-4151
严峻	-4152
丰收	-4153
变成了	-4154
正如	-4155
出于	-4156
协定	-4157
蔚来	-4158
的那	-4159
金山	-4160
助推	-4161
力争	-4162
▁上海	-4163
护理	-4164
电动汽车	-4165
边境	-4166
副总裁	-4167
复合	-4168
策划	-4169
调度	-4170
定义	-4171
存储	-4172
为止	-4173
英语	-4174
明显的	-4175
家企业	-4176
的过程中	-4177
不变	-4178
白天	-4179
后果	-4180
长远	-4181
都可以	-4182
▁资料	-4183
破产	-4184
基本上	-4185
价值观	-4186
市公安局	-4187
体现了	-4188
成的	-4189
是指	-4190
收取	-4191
仅有	-4192
市场化	-4193
高管	-4194
专用	-4195
预报	-4196
倾向	-4197
多元化	-4198
远程	-4199
在国内	-4200
画面	-4201
将持续	-4202
路口	-4203
农业农村	-4204
会计	-4205
和技术	-4206
存在的	-4207
▁本次	-4208
还没	-4209
亲自	-4210
塑料	-4211
积分	-4212
新浪	-4213
在一	-4214
助理	-4215
说话	-4216
港澳	-4217
住了	-4218
家庄	-4219
▁和	-4220
小微	-4221
草原	-4222
仲裁	-4223
为代表	-4224
手中	-4225
埃及	-4226
艺术家	-4227
的风	-4228
等多个	-4229
新冠病毒	-4230
不敢	-4231
▁来源	-4232
进了	-4233
的首	-4234
前后	-4235
有多	-4236
高度重视	-4237
政法	-4238
侦查	-4239
脱贫攻坚	-4240
区别	-4241
一行	-4242
村的	-4243
过度	-4244
阿拉伯	-4245
好像	-4246
船舶	-4247
▁第一	-4248
从未	-4249
缴纳	-4250
骨干	-4251
福州	-4252
等人	-4253
空调	-4254
用户的	-4255
师生	-4256
牺牲	-4257
租金	-4258
PE	-4259
期的	-4260
京津	-4261
湖北省	-4262
桥梁	-4263
其它	-4264
打工	-4265
徒刑	-4266
这款	-4267
of	-4268
免疫	-4269
早上	-4270
的一次	-4271
亚运会	-4272
太多	-4273
▁昨天	-4274
听取	-4275
▁不	-4276
每个人	-4277
封闭	-4278
建设和	-4279
付费	-4280
绿化	-4281
征求	-4282
区块链	-4283
跟着	-4284
剧本	-4285
东莞	-4286
室内	-4287
等奖	-4288
翻译	-4289
局部	-4290
消费者的	-4291
增产	-4292
安徽省	-4293
三分	-4294
联合会	-4295
怀疑	-4296
二次	-4297
活动中	-4298
镜头	-4299
家公司	-4300
经历了	-4301
十七	-4302
巴巴	-4303
便宜	-4304
首相	-4305
阿富	-4306
美帝国主义	-4307
未经	-4308
某种	-4309
农业生产	-4310
医疗机构	-4311
均价	-4312
火车	-4313
年中国	-4314
一人	-4315
强势	-4316
拜登	-4317
ED	-4318
将以	-4319
阿富汗	-4320
马斯克	-4321
个小时	-4322
是最	-4323
轮融资	-4324
崛起	-4325
残疾人	-4326
截止	-4327
短板	-4328
出海	-4329
报价	-4330
开发区	-4331
拘留	-4332
学生的	-4333
演唱	-4334
精心	-4335
调节	-4336
ES	-4337
实事	-4338
改革的	-4339
▁事实上	-4340
教育部	-4341
彰显	-4342
中心的	-4343
业的	-4344
越来越多的	-4345
红球	-4346
十几	-4347
的现象	-4348
列入	-4349
一座	-4350
救灾	-4351
在上海	-4352
保卫	-4353
民营企业	-4354
防汛	-4355
管道	-4356
菲律	-4357
公寓	-4358
强国	-4359
摩托	-4360
社保	-4361
南海	-4362
菲律宾	-4363
房间	-4364
二季度	-4365
退役	-4366
过去的	-4367
人人	-4368
用了	-4369
无限	-4370
备受	-4371
普法	-4372
希腊	-4373
救治	-4374
交易日	-4375
里程	-4376
原创	-4377
又是	-4378
远远	-4379
发展和	-4380
采集	-4381
阵地	-4382
创造了	-4383
的增长	-4384
研究生	-4385
吸收	-4386
篮球	-4387
无症状	-4388
上面	-4389
环球	-4390
福建省	-4391
但他	-4392
再生	-4393
仅为	-4394
▁此前	-4395
继承	-4396
周末	-4397
出货	-4398
将对	-4399
一半	-4400
中奖	-4401
南非	-4402
农场	-4403
公告称	-4404
高原	-4405
▁但是	-4406
货车	-4407
介绍了	-4408
宣讲	-4409
啤酒	-4410
壮大	-4411
消毒	-4412
能在	-4413
带头	-4414
万个	-4415
又有	-4416
水库	-4417
议员	-4418
un	-4419
稳健	-4420
的有	-4421
石化	-4422
三星	-4423
的可能性	-4424
大道	-4425
奉献	-4426
点的	-4427
贝尔	-4428
林业	-4429
▁金	-4430
事发	-4431
个人信息	-4432
海域	-4433
上期	-4434
合并	-4435
乘坐	-4436
报纸	-4437
赶到	-4438
全会	-4439
万亿	-4440
了对	-4441
后者	-4442
拿出	-4443
一部	-4444
势头	-4445
感动	-4446
诚信	-4447
这个问题	-4448
县城	-4449
契机	-4450
重复	-4451
认同	-4452
公共服务	-4453
朋友圈	-4454
期徒刑	-4455
都很	-4456
凸显	-4457
投产	-4458
录取	-4459
副局长	-4460
新鲜	-4461
沿线	-4462
小幅	-4463
上演	-4464
的全	-4465
电视剧	-4466
企业在	-4467
经纪	-4468
湖南省	-4469
文化遗产	-4470
广州市	-4471
分红	-4472
耐心	-4473
要有	-4474
▁●	-4475
五大	-4476
已经在	-4477
所需	-4478
的表现	-4479
约束	-4480
影像	-4481
此事	-4482
用来	-4483
视野	-4484
奇偶	-4485
美股	-4486
云南省	-4487
出租车	-4488
平台上	-4489
保险公司	-4490
志愿服务	-4491
看法	-4492
这意味着	-4493
研报	-4494
造型	-4495
兴奋	-4496
找到了	-4497
的成绩	-4498
集中在	-4499
剧院	-4500
江南	-4501
议会	-4502
同时也	-4503
峰会	-4504
中共中央	-4505
这对	-4506
过于	-4507
色彩	-4508
借鉴	-4509
领袖	-4510
开幕式	-4511
发明	-4512
ct	-4513
发改	-4514
枢纽	-4515
客运	-4516
▁当然	-4517
功夫	-4518
▁新京报	-4519
▁降	-4520
提问	-4521
市区	-4522
口岸	-4523
资助	-4524
大量的	-4525
美军	-4526
中医药	-4527
▁文	-4528
相似	-4529
湿地	-4530
产业的	-4531
给你	-4532
人体	-4533
家园	-4534
每周	-4535
本报记者	-4536
共赢	-4537
意志	-4538
花园	-4539
监督管理	-4540
公募	-4541
豪华	-4542
主管部门	-4543
故意	-4544
卖出	-4545
将有	-4546
遭受	-4547
纺织	-4548
再到	-4549
马来西亚	-4550
荷兰	-4551
较大的	-4552
一套	-4553
ter	-4554
冬奥会	-4555
上有	-4556
一段	-4557
PC	-4558
利息	-4559
五十	-4560
传染	-4561
处分	-4562
推介	-4563
不停	-4564
放心	-4565
赋予	-4566
南昌	-4567
互通	-4568
大桥	-4569
,”	-4570
敏感	-4571
战场	-4572
处的	-4573
不一样	-4574
聊天	-4575
集聚	-4576
关系的	-4577
中医	-4578
技术和	-4579
about	-4580
自动化	-4581
募集	-4582
警惕	-4583
投资人	-4584
给他	-4585
展望	-4586
用人	-4587
是我们	-4588
国会	-4589
携带	-4590
名义	-4591
成分	-4592
消失	-4593
IC	-4594
农田	-4595
一道	-4596
米的	-4597
立方米	-4598
私人	-4599
可谓	-4600
跨越	-4601
日凌晨	-4602
对待	-4603
警示	-4604
离不开	-4605
争夺	-4606
金融服务	-4607
女人	-4608
增长的	-4609
本科	-4610
坚实	-4611
底线	-4612
▁这个	-4613
正当	-4614
中国队	-4615
工地	-4616
度假	-4617
巡逻	-4618
倡导	-4619
民政	-4620
部分地区	-4621
遗憾	-4622
坦言	-4623
开心	-4624
轿车	-4625
侵犯	-4626
优良	-4627
月中旬	-4628
是从	-4629
▁通过	-4630
食用	-4631
精力	-4632
老挝	-4633
第三季度	-4634
▁日前	-4635
中级	-4636
中药	-4637
完美	-4638
添加	-4639
NA	-4640
高水平	-4641
沙特	-4642
多云	-4643
这部	-4644
收藏	-4645
超过了	-4646
知情	-4647
资质	-4648
一件	-4649
国土	-4650
起到	-4651
下来的	-4652
▁**(	-4653
的前提	-4654
著作	-4655
饮食	-4656
滑雪	-4657
华盛	-4658
罗马	-4659
视角	-4660
短信	-4661
关爱	-4662
年后	-4663
运河	-4664
涨价	-4665
边界	-4666
打电话	-4667
分别是	-4668
额度	-4669
通知书	-4670
);	-4671
在家	-4672
方的	-4673
▁这些	-4674
海口	-4675
经济社会发展	-4676
队长	-4677
承办	-4678
片区	-4679
暑期	-4680
世界的	-4681
):	-4682
降水	-4683
上年同期	-4684
焦虑	-4685
学的	-4686
连锁	-4687
伟大的	-4688
等因素	-4689
提振	-4690
多多	-4691
并对	-4692
发生在	-4693
代表大会	-4694
生效	-4695
上调	-4696
中信	-4697
分公司	-4698
增持	-4699
▁会议	-4700
造成的	-4701
事业单位	-4702
真是	-4703
机构的	-4704
多地	-4705
了很多	-4706
合资	-4707
处在	-4708
子里	-4709
既有	-4710
无症状感染者	-4711
我市	-4712
网格	-4713
洪水	-4714
示范区	-4715
仔细	-4716
小鹏	-4717
场馆	-4718
经授权	-4719
为期	-4720
外的	-4721
店铺	-4722
点评	-4723
建造	-4724
记者表示	-4725
等多种	-4726
同行	-4727
提升了	-4728
疯狂	-4729
历程	-4730
抗疫	-4731
竟然	-4732
>>	-4733
年起	-4734
批发	-4735
基建	-4736
称号	-4737
输出	-4738
万名	-4739
所长	-4740
市场份额	-4741
制药	-4742
▁编辑	-4743
谈话	-4744
与其	-4745
▁编	-4746
阳性	-4747
可在	-4748
ip	-4749
南宁	-4750
是以	-4751
的思想	-4752
动画	-4753
见面	-4754
意识到	-4755
我认为	-4756
瞬间	-4757
商店	-4758
宽松	-4759
全新的	-4760
权的	-4761
日期	-4762
遵循	-4763
党组织	-4764
商场	-4765
现货	-4766
严厉	-4767
否认	-4768
他认为	-4769
位的	-4770
这座	-4771
▁与此同时	-4772
在前	-4773
增多	-4774
旗舰	-4775
种种	-4776
▁第三	-4777
”——	-4778
拉动	-4779
被称为	-4780
核实	-4781
水稻	-4782
落户	-4783
安全的	-4784
的一项	-4785
结论	-4786
村庄	-4787
成立于	-4788
人力资源	-4789
有没有	-4790
也就是说	-4791
▁经	-4792
氪经授权	-4793
民宿	-4794
得益	-4795
余名	-4796
需求的	-4797
富裕	-4798
附属	-4799
作了	-4800
看起来	-4801
忽视	-4802
样本	-4803
交换	-4804
很好的	-4805
座谈会	-4806
彼此	-4807
一款	-4808
财政部	-4809
目前已	-4810
为中国	-4811
经营者	-4812
也让	-4813
隐私	-4814
太空	-4815
歌曲	-4816
产业化	-4817
征程	-4818
成交额	-4819
含量	-4820
塑造	-4821
电气	-4822
太平洋	-4823
出资	-4824
电子商务	-4825
几个月	-4826
住院	-4827
缩短	-4828
PM	-4829
介入	-4830
巴基	-4831
见到	-4832
ck	-4833
四年	-4834
级的	-4835
外地	-4836
激光	-4837
雷达	-4838
的具体	-4839
指南	-4840
▁V	-4841
国债	-4842
判处	-4843
的优势	-4844
阿里巴巴	-4845
产业园	-4846
可以通过	-4847
今年上半年	-4848
也不会	-4849
供电	-4850
莫斯科	-4851
巴基斯坦	-4852
的世界	-4853
向上	-4854
智能手机	-4855
在了	-4856
暴露	-4857
相较	-4858
紧紧	-4859
热度	-4860
驾驶员	-4861
从中	-4862
一把	-4863
的手	-4864
毒品	-4865
初心	-4866
检察机关	-4867
人民检察院	-4868
较多	-4869
复制	-4870
单独	-4871
竞技	-4872
奖金	-4873
进球	-4874
最重要的	-4875
的责任	-4876
石家庄	-4877
客服	-4878
居家	-4879
普惠	-4880
起点	-4881
中表示	-4882
内心	-4883
的方法	-4884
重建	-4885
更高的	-4886
est	-4887
殖民	-4888
发生的	-4889
古代	-4890
标志着	-4891
省市	-4892
▁要	-4893
学历	-4894
千瓦	-4895
指挥部	-4896
大盘	-4897
的确	-4898
第七	-4899
介绍说	-4900
候选	-4901
煤矿	-4902
名称	-4903
被执行人	-4904
纳税	-4905
降温	-4906
交通安全	-4907
商业银行	-4908
伊拉克	-4909
沉浸	-4910
的比例	-4911
能力和	-4912
变更	-4913
器械	-4914
生猪	-4915
中山	-4916
有个	-4917
的一部分	-4918
潮流	-4919
让他们	-4920
维度	-4921
交往	-4922
一块	-4923
增效	-4924
宁德	-4925
▁徐	-4926
假日	-4927
生涯	-4928
克斯	-4929
迎接	-4930
降价	-4931
等工作	-4932
人才培养	-4933
受访者	-4934
的项目	-4935
的建设	-4936
为民	-4937
国资	-4938
违法犯罪	-4939
码头	-4940
SH	-4941
低价	-4942
健康发展	-4943
慰问	-4944
新华	-4945
新闻发布会	-4946
开辟	-4947
力和	-4948
是我	-4949
各部门	-4950
▁她	-4951
采访时表示	-4952
)**	-4953
干预	-4954
教育的	-4955
部部长	-4956
消耗	-4957
发改委	-4958
抗议	-4959
必要的	-4960
商户	-4961
年间	-4962
不见	-4963
先锋	-4964
气氛	-4965
年末	-4966
抢救	-4967
推出的	-4968
信念	-4969
扩展	-4970
招股书	-4971
中期	-4972
夫妇	-4973
新发展	-4974
秘密	-4975
原因是	-4976
水泥	-4977
位居	-4978
平方	-4979
机的	-4980
获奖	-4981
生态文明	-4982
华盛顿	-4983
初期	-4984
安倍	-4985
要闻	-4986
播放	-4987
公布了	-4988
统治	-4989
谋划	-4990
▁本文	-4991
有期徒刑	-4992
人与	-4993
的创新	-4994
风电	-4995
男女	-4996
我也	-4997
▁据报道	-4998
太原	-4999
政府和	-5000
市场主体	-5001
量化	-5002
技术创新	-5003
是要	-5004
诊疗	-5005
亿元的	-5006
上月	-5007
▁通讯员	-5008
汇聚	-5009
重庆市	-5010
上行	-5011
区委	-5012
那种	-5013
班子	-5014
就开始	-5015
迭代	-5016
定点	-5017
号线	-5018
总值	-5019
衰退	-5020
长达	-5021
谢谢	-5022
转载	-5023
的力量	-5024
的设计	-5025
租房	-5026
局局长	-5027
低迷	-5028
我说	-5029
高层	-5030
放大	-5031
写作	-5032
运营商	-5033
庭审	-5034
副总经理	-5035
日均	-5036
摄像	-5037
带货	-5038
那时	-5039
一只	-5040
其在	-5041
鉴于	-5042
参展	-5043
产阶级	-5044
调动	-5045
制约	-5046
宗教	-5047
中秋	-5048
余人	-5049
隧道	-5050
降幅	-5051
结构性	-5052
新冠肺炎疫情	-5053
宿舍	-5054
将来	-5055
阿根	-5056
预案	-5057
投资的	-5058
体会	-5059
修正	-5060
景气	-5061
属性	-5062
项目建设	-5063
光荣	-5064
容量	-5065
皮肤	-5066
首届	-5067
牵头	-5068
的管理	-5069
物价	-5070
贵的	-5071
丝绸	-5072
才会	-5073
能力的	-5074
正确的	-5075
▁其实	-5076
成品	-5077
哲学	-5078
分行	-5079
链条	-5080
感知	-5081
债权	-5082
阿根廷	-5083
信访	-5084
大局	-5085
还不	-5086
京津冀	-5087
受灾	-5088
专业的	-5089
应该是	-5090
mm	-5091
货运	-5092
两个月	-5093
新一代	-5094
加以	-5095
情报	-5096
以便	-5097
山西省	-5098
付出	-5099
务实	-5100
之处	-5101
讲座	-5102
到期	-5103
短期内	-5104
却是	-5105
大宗	-5106
所属	-5107
致辞	-5108
再加上	-5109
承载	-5110
边的	-5111
ow	-5112
副院长	-5113
实体经济	-5114
epaper	-5115
摆脱	-5116
瑞士	-5117
一次性	-5118
首发	-5119
花费	-5120
互助	-5121
比特	-5122
背后的	-5123
在他	-5124
产生了	-5125
US	-5126
好好	-5127
每股	-5128
笔者	-5129
融合发展	-5130
拓宽	-5131
目录	-5132
天津市	-5133
社交媒体	-5134
颜色	-5135
IS	-5136
人家	-5137
巴马	-5138
国际化	-5139
一支	-5140
回暖	-5141
团伙	-5142
提及	-5143
创办	-5144
缺少	-5145
演练	-5146
举办的	-5147
转化为	-5148
指定	-5149
数据中心	-5150
无奈	-5151
目的地	-5152
公务员	-5153
价比	-5154
处处	-5155
保存	-5156
公里的	-5157
矛盾纠纷	-5158
航线	-5159
好转	-5160
愿望	-5161
国家安全	-5162
加大对	-5163
UV	-5164
入驻	-5165
稳定的	-5166
对外开放	-5167
地域	-5168
来自微信公众号	-5169
统计局	-5170
较高的	-5171
市场规模	-5172
多万	-5173
立刻	-5174
组成部分	-5175
最多的	-5176
两地	-5177
姑娘	-5178
得很	-5179
基本面	-5180
全社会	-5181
核查	-5182
海峡	-5183
约翰	-5184
来讲	-5185
我要	-5186
的时代	-5187
时机	-5188
装饰	-5189
迹象	-5190
征收	-5191
受到了	-5192
家具	-5193
文化和旅游	-5194
澎湃	-5195
在该	-5196
均衡	-5197
医护	-5198
新京	-5199
西哥	-5200
遏制	-5201
氪经授权发布	-5202
一案	-5203
书法	-5204
我和	-5205
在其	-5206
小镇	-5207
野生动物	-5208
万达	-5209
发扬	-5210
男性	-5211
排队	-5212
墨西哥	-5213
十四五	-5214
因而	-5215
听说	-5216
直播间	-5217
不满	-5218
)》	-5219
▁近	-5220
的战略	-5221
的外	-5222
联络	-5223
选拔	-5224
党员干部	-5225
燃气	-5226
快速发展	-5227
走到	-5228
防御	-5229
上看	-5230
TC	-5231
商业化	-5232
法制	-5233
科创板	-5234
代码	-5235
一号	-5236
浦东	-5237
认识到	-5238
交叉	-5239
导师	-5240
目光	-5241
同胞	-5242
熊猫	-5243
一大	-5244
古巴	-5245
电器	-5246
栏目	-5247
孵化	-5248
最快	-5249
珠海	-5250
选择了	-5251
本月	-5252
历史的	-5253
其中包括	-5254
欧美	-5255
届时	-5256
发现了	-5257
行政处罚	-5258
为其	-5259
科学技术	-5260
单元	-5261
门票	-5262
▁首先	-5263
回国	-5264
举行了	-5265
事务所	-5266
物联网	-5267
在国际	-5268
多方	-5269
科院	-5270
一千	-5271
味道	-5272
▁日本	-5273
的品牌	-5274
已经有	-5275
荣耀	-5276
抑制	-5277
标识	-5278
短短	-5279
护航	-5280
▁所以	-5281
市场需求	-5282
组成的	-5283
心中	-5284
扮演	-5285
条约	-5286
美方	-5287
看了	-5288
os	-5289
无锡	-5290
道理	-5291
沪深	-5292
也表示	-5293
样子	-5294
地带	-5295
红军	-5296
面临着	-5297
波兰	-5298
的资金	-5299
交给	-5300
实践中	-5301
附加	-5302
不愿	-5303
夏天	-5304
亿元人民币	-5305
北约	-5306
是我国	-5307
滴滴	-5308
缴费	-5309
本报	-5310
甘肃省	-5311
时段	-5312
最高的	-5313
”:	-5314
万多	-5315
商务部	-5316
可达	-5317
不断提高	-5318
所谓的	-5319
故障	-5320
▁孙	-5321
不等	-5322
男人	-5323
宝马	-5324
线城市	-5325
年报	-5326
毫无	-5327
药业	-5328
高新区	-5329
招待	-5330
频道	-5331
发送	-5332
MA	-5333
不止	-5334
或将	-5335
疑似	-5336
基金经理	-5337
这是一个	-5338
一期	-5339
向前	-5340
在外	-5341
大战	-5342
执政	-5343
成交量	-5344
前三季度	-5345
而来	-5346
上世纪	-5347
一定程度上	-5348
享福利	-5349
与会	-5350
筹备	-5351
两家	-5352
他是	-5353
一开始	-5354
的价值	-5355
起来的	-5356
占有	-5357
▁关于	-5358
从小	-5359
今天的	-5360
普京	-5361
▁天	-5362
除此	-5363
流向	-5364
有限责任	-5365
终止	-5366
全覆盖	-5367
不高	-5368
新车	-5369
▁面对	-5370
IN	-5371
量产	-5372
月二十	-5373
交互	-5374
流转	-5375
过渡	-5376
源于	-5377
涌现	-5378
我们将	-5379
谴责	-5380
青山	-5381
三级	-5382
边缘	-5383
呈现出	-5384
该项目	-5385
小康	-5386
笔记	-5387
不论	-5388
的经验	-5389
管理办法	-5390
▁公司	-5391
同学们	-5392
op	-5393
医师	-5394
化妆	-5395
基点	-5396
沃尔	-5397
交通事故	-5398
▁五	-5399
户籍	-5400
承受	-5401
的车	-5402
”?	-5403
既然	-5404
威尔	-5405
ina	-5406
县级	-5407
他对	-5408
刘某	-5409
法案	-5410
风景	-5411
后面	-5412
巴勒	-5413
也不是	-5414
中部	-5415
作出了	-5416
召开的	-5417
▁朱	-5418
性价比	-5419
是一家	-5420
▁当地时间	-5421
扣除	-5422
情怀	-5423
写道	-5424
数字化转型	-5425
辉煌	-5426
血管	-5427
得益于	-5428
龙头企业	-5429
燃油	-5430
保安	-5431
四十	-5432
有趣	-5433
独特的	-5434
客车	-5435
克里	-5436
相反	-5437
起步	-5438
高压	-5439
数学	-5440
举证	-5441
团长	-5442
立体	-5443
算是	-5444
但由于	-5445
巡查	-5446
一日	-5447
进一步提升	-5448
VR	-5449
导航	-5450
万科	-5451
显现	-5452
给出	-5453
领导小组	-5454
问题上	-5455
仍是	-5456
陌生	-5457
人都	-5458
ul	-5459
人事	-5460
江西省	-5461
的高度	-5462
临近	-5463
大涨	-5464
信息技术	-5465
青睐	-5466
中小学	-5467
大家都	-5468
贵州省	-5469
随即	-5470
合成	-5471
inan	-5472
热线	-5473
▁新华社北京	-5474
党政	-5475
食堂	-5476
万户	-5477
北大	-5478
热闹	-5479
烈士	-5480
说道	-5481
上级	-5482
黑色	-5483
促使	-5484
自然资源	-5485
进一步加强	-5486
准入	-5487
之旅	-5488
探测	-5489
期望	-5490
不需要	-5491
随之	-5492
DA	-5493
丰田	-5494
持平	-5495
国家队	-5496
下沉	-5497
亲切	-5498
做得	-5499
的政治	-5500
日元	-5501
巴勒斯坦	-5502
加快推进	-5503
奥巴马	-5504
二百	-5505
和新	-5506
双向	-5507
发了	-5508
无产阶级	-5509
针对性	-5510
小平	-5511
分工	-5512
▁月	-5513
LP	-5514
积极参与	-5515
抵押	-5516
概率	-5517
出现的	-5518
消息称	-5519
!》	-5520
就被	-5521
务工	-5522
整车	-5523
本书	-5524
水的	-5525
小姐	-5526
伴随着	-5527
无线	-5528
小程序	-5529
就医	-5530
此类	-5531
塞尔	-5532
发展中国	-5533
的通知	-5534
意向	-5535
征集	-5536
忠诚	-5537
时间内	-5538
故宫	-5539
监局	-5540
足协	-5541
业界	-5542
的道路	-5543
夯实	-5544
出门	-5545
安全隐患	-5546
蓬勃	-5547
棉花	-5548
ob	-5549
实用	-5550
战术	-5551
为企业	-5552
消化	-5553
的朋友	-5554
气候变化	-5555
创立	-5556
春晚	-5557
攻关	-5558
如果你	-5559
干净	-5560
主权	-5561
▁O	-5562
者和	-5563
企图	-5564
天地	-5565
博览会	-5566
▁按照	-5567
的环境	-5568
开支	-5569
研判	-5570
执行官	-5571
点赞	-5572
但这	-5573
我省	-5574
化名	-5575
学位	-5576
已于	-5577
张家	-5578
付款	-5579
便是	-5580
的意见	-5581
下旬	-5582
▁经过	-5583
尽可能	-5584
任职	-5585
痛苦	-5586
▁林	-5587
也不能	-5588
新股	-5589
史上	-5590
生产经营	-5591
圆满	-5592
开车	-5593
打卡	-5594
授予	-5595
模块	-5596
%-	-5597
语音	-5598
有限责任公司	-5599
包容	-5600
为中心	-5601
小孩	-5602
抗日	-5603
性格	-5604
”。“	-5605
违约	-5606
流出	-5607
▁二是	-5608
仿佛	-5609
的收入	-5610
为基础	-5611
升至	-5612
▁你	-5613
从严	-5614
值班	-5615
实战	-5616
政协委员	-5617
在一个	-5618
华夏	-5619
拿着	-5620
破解	-5621
主义的	-5622
银行业	-5623
分歧	-5624
地址	-5625
一定会	-5626
短缺	-5627
缓慢	-5628
合伙人	-5629
自愿	-5630
阵容	-5631
的消费	-5632
央企	-5633
议院	-5634
▁因此	-5635
ik	-5636
办学	-5637
压缩	-5638
口碑	-5639
天猫	-5640
中新社	-5641
农机	-5642
有力的	-5643
开盘	-5644
管制	-5645
之家	-5646
总投资	-5647
抗击	-5648
验收	-5649
不应	-5650
年同期	-5651
十字	-5652
楼盘	-5653
蓝色	-5654
陕西省	-5655
评审	-5656
侵害	-5657
体检	-5658
台北	-5659
帮忙	-5660
传感	-5661
人大常委会	-5662
文创	-5663
集团的	-5664
民主党	-5665
股东的	-5666
的就是	-5667
不符合	-5668
疫情影响	-5669
首席执行官	-5670
本轮	-5671
主角	-5672
重症	-5673
中日	-5674
提案	-5675
由中国	-5676
提取	-5677
三次	-5678
留学	-5679
商业模式	-5680
卫视	-5681
创下	-5682
一直是	-5683
全国各地	-5684
展示了	-5685
首位	-5686
党组书记	-5687
功率	-5688
向好	-5689
▁现在	-5690
深耕	-5691
新品	-5692
电商平台	-5693
她在	-5694
了一系列	-5695
男篮	-5696
门诊	-5697
学校的	-5698
榜单	-5699
数百	-5700
不容	-5701
筛查	-5702
时光	-5703
期满	-5704
领土	-5705
的决定	-5706
一事	-5707
节省	-5708
城管	-5709
基准	-5710
穿着	-5711
细致	-5712
的多	-5713
违纪	-5714
男孩	-5715
报告中	-5716
专项行动	-5717
目的是	-5718
理工	-5719
盗窃	-5720
了几	-5721
的一切	-5722
监狱	-5723
心态	-5724
履职	-5725
一站	-5726
接收	-5727
试验区	-5728
邮政	-5729
坚持以	-5730
摩托车	-5731
夫人	-5732
议题	-5733
特尔	-5734
取得的	-5735
明确了	-5736
密码	-5737
全球化	-5738
海南省	-5739
每人	-5740
吸引力	-5741
▁那么	-5742
等相关	-5743
抓手	-5744
便民	-5745
万家	-5746
的状态	-5747
搭配	-5748
银行卡	-5749
硕士	-5750
这两个	-5751
辞职	-5752
位列	-5753
者按	-5754
实际情况	-5755
小红	-5756
二人	-5757
去世	-5758
西兰	-5759
第二天	-5760
实现营业收入	-5761
剩余	-5762
欣赏	-5763
这时	-5764
▁值得一提的是	-5765
司令	-5766
黑龙江省	-5767
已达	-5768
报告显示	-5769
TA	-5770
下面	-5771
不明	-5772
蔓延	-5773
在未来	-5774
PS	-5775
掉了	-5776
感兴趣	-5777
锦赛	-5778
大楼	-5779
留言	-5780
惊喜	-5781
鼓舞	-5782
恶劣	-5783
师范大学	-5784
杠杆	-5785
。”“	-5786
限度	-5787
事后	-5788
▁作者	-5789
中超	-5790
▁图片	-5791
头的	-5792
拉开	-5793
图像	-5794
美洲	-5795
赶紧	-5796
低位	-5797
外长	-5798
等部门	-5799
组长	-5800
单纯	-5801
造车	-5802
年期	-5803
类的	-5804
▁比如	-5805
中院	-5806
确立	-5807
没有任何	-5808
走上	-5809
养老金	-5810
经济体	-5811
拆除	-5812
中级人民法院	-5813
哪个	-5814
大于	-5815
流感	-5816
亿美元的	-5817
商品房	-5818
急救	-5819
附近的	-5820
ph	-5821
经济学家	-5822
责令	-5823
四季度	-5824
怎么办	-5825
领导下	-5826
出具	-5827
常见	-5828
言论	-5829
工作会议	-5830
车道	-5831
大事	-5832
中外	-5833
荣获	-5834
当场	-5835
打了	-5836
的比赛	-5837
双边	-5838
过后	-5839
发掘	-5840
ia	-5841
二手房	-5842
半岛	-5843
督导	-5844
CPI	-5845
景点	-5846
资深	-5847
不确定性	-5848
专属	-5849
开创	-5850
本市	-5851
新材料	-5852
的研发	-5853
一同	-5854
关怀	-5855
既是	-5856
赛后	-5857
住在	-5858
反动	-5859
要想	-5860
房地产市场	-5861
日消息	-5862
往来	-5863
电竞	-5864
爱好者	-5865
带有	-5866
红旗	-5867
极为	-5868
资产管理	-5869
标准的	-5870
房贷	-5871
麻烦	-5872
战略合作	-5873
伊斯	-5874
教训	-5875
战友	-5876
限于	-5877
山水	-5878
TV	-5879
消费品	-5880
价格上涨	-5881
阶段性	-5882
邻居	-5883
搬迁	-5884
十八大	-5885
客人	-5886
水平的	-5887
也都	-5888
要么	-5889
次数	-5890
车上	-5891
店的	-5892
条件下	-5893
本赛季	-5894
)“	-5895
▁这一	-5896
很容易	-5897
能不能	-5898
归属于	-5899
原子	-5900
三天	-5901
素养	-5902
现金流	-5903
陈某	-5904
监委	-5905
仓库	-5906
难点	-5907
一对	-5908
人民医院	-5909
he	-5910
一个个	-5911
促销	-5912
完毕	-5913
的声音	-5914
道歉	-5915
小心	-5916
火爆	-5917
提质	-5918
分化	-5919
新城	-5920
各方面	-5921
采用了	-5922
中和	-5923
▁当前	-5924
清华大学	-5925
▁最近	-5926
控股股东	-5927
减排	-5928
受损	-5929
随意	-5930
▁就	-5931
不对	-5932
加密	-5933
发生后	-5934
看似	-5935
感慨	-5936
测算	-5937
▁国	-5938
在过去	-5939
银行的	-5940
go	-5941
迫切	-5942
精选	-5943
网易	-5944
体系建设	-5945
眼前	-5946
特色的	-5947
抓紧	-5948
上半	-5949
纪检	-5950
简单的	-5951
ee	-5952
血液	-5953
会儿	-5954
比分	-5955
的重要性	-5956
第八	-5957
都没	-5958
登上	-5959
的重大	-5960
厂家	-5961
指控	-5962
上网	-5963
心脏	-5964
过往	-5965
设计师	-5966
深深	-5967
说是	-5968
人们的	-5969
客场	-5970
’。”	-5971
奶奶	-5972
除此之外	-5973
表面	-5974
保守	-5975
跨界	-5976
SUV	-5977
在内	-5978
的重	-5979
大脑	-5980
表彰	-5981
感和	-5982
综艺	-5983
副总理	-5984
自有	-5985
当时的	-5986
更快	-5987
大豆	-5988
恐怕	-5989
两市	-5990
例子	-5991
效能	-5992
示威	-5993
的最大	-5994
他就	-5995
击败	-5996
合理的	-5997
绝大多数	-5998
▁近期	-5999
等重点	-6000
劳务	-6001
物的	-6002
大使馆	-6003
中欧	-6004
麒麟	-6005
签证	-6006
好友	-6007
征求意见	-6008
回去	-6009
陪伴	-6010
占领	-6011
扩散	-6012
个性化	-6013
晚报	-6014
借贷	-6015
接连	-6016
拿下	-6017
辛苦	-6018
医务	-6019
复杂的	-6020
创新发展	-6021
组织开展	-6022
偿还	-6023
歌手	-6024
气象台	-6025
自身的	-6026
书写	-6027
炒作	-6028
着眼	-6029
ub	-6030
市级	-6031
传奇	-6032
也曾	-6033
环境保护	-6034
斯基	-6035
极其	-6036
av	-6037
奔驰	-6038
第二个	-6039
缅甸	-6040
脱离	-6041
的作品	-6042
年中	-6043
约合	-6044
拍照	-6045
干涉	-6046
网民	-6047
面貌	-6048
▁一是	-6049
服务平台	-6050
一面	-6051
大厅	-6052
与其他	-6053
这件事	-6054
石头	-6055
生产和	-6056
的用户	-6057
就是要	-6058
奢侈	-6059
房源	-6060
图为	-6061
可以看到	-6062
夺冠	-6063
限购	-6064
保养	-6065
士兵	-6066
机组	-6067
民航	-6068
衍生	-6069
大风	-6070
体现在	-6071
大街	-6072
饲料	-6073
▁报道称	-6074
正规	-6075
预制	-6076
的人才	-6077
获批	-6078
增进	-6079
宣传部	-6080
开学	-6081
都被	-6082
新模式	-6083
测量	-6084
量子	-6085
夺得	-6086
灾区	-6087
等情况	-6088
睡眠	-6089
激情	-6090
独家	-6091
专业化	-6092
吉林省	-6093
贫困户	-6094
▁随后	-6095
许可证	-6096
基础设施建设	-6097
风光	-6098
国安	-6099
丝绸之路	-6100
关税	-6101
三个月	-6102
新中国	-6103
留学生	-6104
一时	-6105
为由	-6106
当选	-6107
St	-6108
上映	-6109
出色	-6110
的部分	-6111
▁胡	-6112
网点	-6113
逮捕	-6114
的角度	-6115
上来	-6116
▁那	-6117
大会上	-6118
天天	-6119
的前提下	-6120
复产	-6121
薄弱	-6122
表态	-6123
心情	-6124
厘米	-6125
代价	-6126
困扰	-6127
的美	-6128
满了	-6129
迄今	-6130
用途	-6131
▁具体	-6132
元左右	-6133
我不	-6134
农药	-6135
截图	-6136
发挥了	-6137
批次	-6138
修建	-6139
绩效	-6140
他和	-6141
毫不	-6142
托管	-6143
跟随	-6144
久的	-6145
月末	-6146
改编	-6147
上限	-6148
二十大	-6149
旅行社	-6150
原始	-6151
数据库	-6152
的海	-6153
的业务	-6154
的销售	-6155
国际社会	-6156
早就	-6157
华北	-6158
女排	-6159
▁因为	-6160
瑞典	-6161
▁受	-6162
格兰	-6163
较好	-6164
及其他	-6165
的重点	-6166
的美国	-6167
我会	-6168
中长期	-6169
主营业务	-6170
已经开始	-6171
技艺	-6172
此举	-6173
占总	-6174
猪肉	-6175
开业	-6176
也需要	-6177
有过	-6178
着手	-6179
的教育	-6180
——“	-6181
的活动	-6182
LED	-6183
底部	-6184
薪酬	-6185
的空间	-6186
妥善	-6187
度和	-6188
整顿	-6189
族自治	-6190
前提	-6191
命令	-6192
对该	-6193
干扰	-6194
防守	-6195
有一些	-6196
浪潮	-6197
造成了	-6198
ation	-6199
教材	-6200
办公厅	-6201
都将	-6202
长征	-6203
人死亡	-6204
大股东	-6205
主人	-6206
爷爷	-6207
充分利用	-6208
而非	-6209
信用卡	-6210
资源的	-6211
全局	-6212
的标准	-6213
吉利	-6214
之地	-6215
城镇化	-6216
直升	-6217
云计算	-6218
了两	-6219
很高	-6220
精英	-6221
被害	-6222
汽油	-6223
不低于	-6224
价值的	-6225
了一场	-6226
引起了	-6227
运转	-6228
有机会	-6229
突击	-6230
就没有	-6231
流失	-6232
界面	-6233
总会	-6234
无效	-6235
无需	-6236
并通过	-6237
伤亡	-6238
并于	-6239
技巧	-6240
的法律	-6241
事宜	-6242
是非常	-6243
社报道	-6244
将达到	-6245
区内	-6246
尺寸	-6247
绘画	-6248
碰撞	-6249
赛场	-6250
记者在	-6251
▁值得注意的是	-6252
别的	-6253
司长	-6254
▁K	-6255
热潮	-6256
有时候	-6257
文书	-6258
降息	-6259
成员国	-6260
第一季度	-6261
德里	-6262
出院	-6263
取代	-6264
▁编者按	-6265
文化旅游	-6266
播出	-6267
柴油	-6268
太阳能	-6269
实际行动	-6270
让她	-6271
太大	-6272
象征	-6273
年在	-6274
的斗争	-6275
受贿	-6276
五一	-6277
病情	-6278
进军	-6279
大厦	-6280
政权	-6281
一看	-6282
的特点	-6283
工委	-6284
出让	-6285
县的	-6286
竞争对手	-6287
专注于	-6288
创新创业	-6289
当晚	-6290
新闻发布会上	-6291
会对	-6292
敢于	-6293
阻止	-6294
优秀的	-6295
撤销	-6296
遗漏	-6297
书面	-6298
一九七	-6299
抗战	-6300
漏洞	-6301
制定了	-6302
第一批	-6303
万里	-6304
出境	-6305
的总	-6306
在网上	-6307
穿越	-6308
佛山	-6309
白色	-6310
前列	-6311
支付宝	-6312
将从	-6313
祝福	-6314
线上线下	-6315
火热	-6316
生产线	-6317
MC	-6318
南北	-6319
频频	-6320
等活动	-6321
老家	-6322
装箱	-6323
医疗器械	-6324
art	-6325
地处	-6326
传感器	-6327
成功的	-6328
这名	-6329
我们也	-6330
的人生	-6331
纤维	-6332
预售	-6333
将近	-6334
三百	-6335
多月	-6336
祝贺	-6337
乘用车	-6338
厨房	-6339
国民经济	-6340
上学	-6341
面试	-6342
制的	-6343
▁最后	-6344
及相关	-6345
所在的	-6346
规模化	-6347
种类	-6348
书店	-6349
中国市场	-6350
产品质量	-6351
用人单位	-6352
主演	-6353
分离	-6354
渐渐	-6355
▁炒股开户	-6356
▁炒股开户享福利	-6357
不断地	-6358
各项工作	-6359
喜爱	-6360
尼西亚	-6361
的关注	-6362
国家和地区	-6363
三亚	-6364
进去	-6365
贯穿	-6366
减弱	-6367
组件	-6368
双重	-6369
代言	-6370
青海省	-6371
观测	-6372
二维	-6373
比特币	-6374
一方	-6375
人社	-6376
第九	-6377
国民党	-6378
为代表的	-6379
就此	-6380
指责	-6381
马拉松	-6382
跨国	-6383
的速度	-6384
还未	-6385
资本主义	-6386
理事会	-6387
给我们	-6388
市场预期	-6389
工信	-6390
让你	-6391
反映了	-6392
变为	-6393
几次	-6394
社会治理	-6395
拼多多	-6396
▁全国	-6397
亚运	-6398
信仰	-6399
口号	-6400
相机	-6401
人气	-6402
演习	-6403
中全会	-6404
全天	-6405
最美	-6406
被迫	-6407
十足	-6408
温州	-6409
均有	-6410
日从	-6411
动力电池	-6412
等一系列	-6413
服饰	-6414
旗下的	-6415
凤凰	-6416
盘中	-6417
员的	-6418
块钱	-6419
廉洁	-6420
民俗	-6421
街头	-6422
备战	-6423
记载	-6424
了一批	-6425
客流	-6426
ebook	-6427
下一个	-6428
制造商	-6429
卫生健康	-6430
多万元	-6431
最大限度	-6432
住宿	-6433
行程	-6434
技术人员	-6435
声称	-6436
途中	-6437
解决问题	-6438
的事实	-6439
得多	-6440
减少了	-6441
和经济	-6442
陪同	-6443
最具	-6444
资讯	-6445
和企业	-6446
li	-6447
播种	-6448
行长	-6449
缩小	-6450
生日	-6451
占地	-6452
的方向	-6453
的选择	-6454
来自于	-6455
生活方式	-6456
▁"	-6457
所未	-6458
▁我国	-6459
▁资料图	-6460
看待	-6461
迎来了	-6462
供水	-6463
谈及	-6464
开门	-6465
去做	-6466
上市的	-6467
字节	-6468
茶叶	-6469
等到	-6470
演绎	-6471
届中国	-6472
偶像	-6473
重要作用	-6474
周刊	-6475
公交车	-6476
和文化	-6477
▁th	-6478
的孩子	-6479
持仓	-6480
全过程	-6481
智库	-6482
监护	-6483
政治局	-6484
下半	-6485
们在	-6486
华东	-6487
个基点	-6488
上证	-6489
千年	-6490
古城	-6491
瓶颈	-6492
完整的	-6493
行业发展	-6494
眼镜	-6495
这样一个	-6496
正面	-6497
而出	-6498
较快	-6499
和支持	-6500
了不少	-6501
颁奖	-6502
让更多	-6503
建筑面积	-6504
人身	-6505
超出	-6506
已是	-6507
印度尼西亚	-6508
acebook	-6509
排列	-6510
内容的	-6511
表情	-6512
空气质量	-6513
年均	-6514
到现在	-6515
的钱	-6516
详情	-6517
停车场	-6518
被动	-6519
尴尬	-6520
打印	-6521
欢乐	-6522
数据的	-6523
大力发展	-6524
区和	-6525
ers	-6526
的感觉	-6527
装机	-6528
各位	-6529
就把	-6530
冠状	-6531
坚强	-6532
希望通过	-6533
大学的	-6534
新冠疫情	-6535
幸运	-6536
国有企业	-6537
追踪	-6538
航空公司	-6539
沿着	-6540
享有	-6541
抢险	-6542
漂亮	-6543
的目的	-6544
良性	-6545
离职	-6546
逐年	-6547
差异化	-6548
壁垒	-6549
昨晚	-6550
溢价	-6551
电路	-6552
田间	-6553
住房公积金	-6554
大雨	-6555
的反	-6556
已经是	-6557
卓越	-6558
台阶	-6559
开源	-6560
忘记	-6561
旺季	-6562
的任务	-6563
node	-6564
大地	-6565
新产品	-6566
生产力	-6567
原有	-6568
的说法	-6569
的最	-6570
日开始	-6571
盲目	-6572
诗歌	-6573
不易	-6574
山的	-6575
原来的	-6576
外观	-6577
公共卫生	-6578
时至	-6579
价为	-6580
那就是	-6581
邮件	-6582
局地	-6583
文献	-6584
仪器	-6585
害怕	-6586
管理和	-6587
全线	-6588
公报	-6589
混乱	-6590
闭环	-6591
入学	-6592
加班	-6593
审美	-6594
纠正	-6595
辽宁省	-6596
降低了	-6597
ut	-6598
之内	-6599
玩具	-6600
禁毒	-6601
密度	-6602
就看	-6603
入金	-6604
应用于	-6605
资料显示	-6606
要加强	-6607
水质	-6608
但从	-6609
在中	-6610
垂直	-6611
SZ	-6612
高标准	-6613
但我	-6614
第二季度	-6615
亿港元	-6616
公约	-6617
写的	-6618
医护人员	-6619
分之一	-6620
热议	-6621
和国际	-6622
五百	-6623
求助	-6624
▁海	-6625
实际控制	-6626
需要的	-6627
▁一个	-6628
绿色发展	-6629
差不多	-6630
改变了	-6631
之上	-6632
▁罗	-6633
身影	-6634
特性	-6635
外媒	-6636
出手	-6637
疾控	-6638
▁老	-6639
内在	-6640
护士	-6641
乐园	-6642
书籍	-6643
▁n	-6644
前行	-6645
佩戴	-6646
敦煌	-6647
创新的	-6648
报告期内	-6649
攀升	-6650
漫画	-6651
冬天	-6652
评为	-6653
面包	-6654
笑着	-6655
了一种	-6656
元红包	-6657
沙漠	-6658
直至	-6659
很可能	-6660
不受	-6661
的做法	-6662
刷新	-6663
可控	-6664
水位	-6665
阻碍	-6666
进入了	-6667
我们认为	-6668
会晤	-6669
工作组	-6670
善于	-6671
折扣	-6672
数额	-6673
制度的	-6674
园林	-6675
伴随	-6676
百货	-6677
规范化	-6678
神秘	-6679
通车	-6680
多彩	-6681
...	-6682
往年	-6683
河道	-6684
▁活动	-6685
历经	-6686
奥迪	-6687
任命	-6688
矿业	-6689
尼斯	-6690
歧视	-6691
促进了	-6692
碳排放	-6693
▁郭	-6694
站点	-6695
好处	-6696
宝宝	-6697
列为	-6698
哪儿	-6699
深受	-6700
环卫	-6701
与发展	-6702
高新技术	-6703
哥哥	-6704
股民	-6705
军的	-6706
拉斯	-6707
向记者	-6708
新媒体	-6709
增长了	-6710
前三	-6711
富有	-6712
区人民法院	-6713
普查	-6714
联通	-6715
的使用	-6716
候选人	-6717
要坚持	-6718
▁南	-6719
商贸	-6720
当初	-6721
用心	-6722
CO	-6723
至此	-6724
现任	-6725
的行业	-6726
北交所	-6727
商会	-6728
▁万	-6729
三四	-6730
晋级	-6731
怎样的	-6732
都需要	-6733
续航	-6734
山县	-6735
到处	-6736
设定	-6737
QQ	-6738
了一条	-6739
走出去	-6740
差别	-6741
:《【	-6742
个城市	-6743
做出了	-6744
建材	-6745
建立健全	-6746
北美	-6747
发展中国家	-6748
开奖	-6749
过剩	-6750
至关	-6751
远的	-6752
两者	-6753
乒乓	-6754
皮书	-6755
科技成果	-6756
认购	-6757
高质量发展的	-6758
分级	-6759
说了	-6760
风雨	-6761
姿态	-6762
终身	-6763
个人的	-6764
集装箱	-6765
不服	-6766
自己在	-6767
特种	-6768
不合格	-6769
宏观经济	-6770
想起	-6771
颠覆	-6772
网约	-6773
▁J	-6774
礼物	-6775
不便	-6776
将被	-6777
净流入	-6778
用工	-6779
多样性	-6780
互补	-6781
党组成员	-6782
不久前	-6783
现代农业	-6784
恶化	-6785
缺陷	-6786
进来	-6787
用好	-6788
▁□	-6789
公安部	-6790
武汉市	-6791
率达	-6792
间接	-6793
▁同	-6794
的光	-6795
顶级	-6796
另有	-6797
冠状病毒	-6798
总台	-6799
追溯	-6800
光明日报	-6801
RE	-6802
缺口	-6803
从此	-6804
厕所	-6805
的传统	-6806
美国政府	-6807
▁今年以来	-6808
足以	-6809
主打	-6810
彩票	-6811
放开	-6812
在我	-6813
已完成	-6814
旅游业	-6815
预告	-6816
建设项目	-6817
占用	-6818
脚步	-6819
不清	-6820
油气	-6821
空白	-6822
来源于	-6823
奇迹	-6824
IM	-6825
了一下	-6826
入金抽	-6827
底层	-6828
锦标	-6829
全资	-6830
它是	-6831
创业者	-6832
信息披露	-6833
宁德时代	-6834
▁其次	-6835
女生	-6836
长效	-6837
持有的	-6838
俄乌	-6839
姐姐	-6840
戏曲	-6841
渔业	-6842
较少	-6843
季报	-6844
的天	-6845
实习生	-6846
的效果	-6847
六十	-6848
形容	-6849
两会	-6850
递交	-6851
和管理	-6852
在京	-6853
稳增长	-6854
罕见	-6855
从业人员	-6856
兴起	-6857
杭州市	-6858
实效	-6859
马尔	-6860
会不会	-6861
春天	-6862
这里的	-6863
一处	-6864
不佳	-6865
也开始	-6866
一口	-6867
下属	-6868
细则	-6869
长期以来	-6870
小微企业	-6871
加之	-6872
股本	-6873
依照	-6874
督察	-6875
的一年	-6876
兑现	-6877
大胆	-6878
登录	-6879
申请人	-6880
结合起来	-6881
作案	-6882
入住	-6883
向社会	-6884
饭店	-6885
稳定性	-6886
弥补	-6887
不时	-6888
艺人	-6889
上下游	-6890
▁**【	-6891
华南	-6892
看得	-6893
单位的	-6894
卫健	-6895
告别	-6896
个月的	-6897
外来	-6898
二维码	-6899
日发布	-6900
会同	-6901
观光	-6902
做大	-6903
新京报记者	-6904
净值	-6905
大兴	-6906
发展战略	-6907
党内	-6908
姆斯	-6909
标杆	-6910
监管部门	-6911
创作者	-6912
原理	-6913
一站式	-6914
信息的	-6915
及以上	-6916
▁答	-6917
并与	-6918
CC	-6919
养老保险	-6920
这种情况	-6921
既要	-6922
不仅仅是	-6923
中说	-6924
农家	-6925
命运共同体	-6926
增至	-6927
▁http	-6928
正好	-6929
阵雨	-6930
加深	-6931
手里	-6932
自律	-6933
核电	-6934
也成为	-6935
女足	-6936
出品	-6937
厂的	-6938
旁边	-6939
随机	-6940
队在	-6941
时表示	-6942
火车站	-6943
农牧	-6944
超额	-6945
对我	-6946
有权	-6947
互联互通	-6948
惠民	-6949
暑假	-6950
月下旬	-6951
”......	-6952
先进的	-6953
aS	-6954
流传	-6955
化妆品	-6956
实施方案	-6957
理财产品	-6958
参与者	-6959
▁白	-6960
援引	-6961
深入推进	-6962
一手	-6963
克斯坦	-6964
▁三是	-6965
世界经济	-6966
和解	-6967
流水	-6968
掀起	-6969
尔多	-6970
为主的	-6971
第三次	-6972
行为的	-6973
救护	-6974
浩特	-6975
中发现	-6976
▁阿	-6977
捐款	-6978
这笔	-6979
遇难	-6980
预制菜	-6981
工业化	-6982
互利	-6983
军民	-6984
少数民族	-6985
主帅	-6986
传达	-6987
提名	-6988
为首	-6989
亲子	-6990
摄像头	-6991
买了	-6992
如同	-6993
研究人员	-6994
跨境电商	-6995
划分	-6996
廉政	-6997
得分	-6998
扫码	-6999
兼顾	-7000
取决	-7001
存在着	-7002
规模的	-7003
盈利能力	-7004
住建	-7005
情景	-7006
自豪	-7007
最新的	-7008
县公安局	-7009
一句	-7010
抱着	-7011
锁定	-7012
某个	-7013
灵魂	-7014
共同努力	-7015
合同纠纷	-7016
战线	-7017
旗帜	-7018
基金的	-7019
▁西	-7020
癌症	-7021
有关规定	-7022
认为是	-7023
中所	-7024
注射	-7025
衡量	-7026
该国	-7027
会场	-7028
跨度	-7029
的有效	-7030
▁安	-7031
锦标赛	-7032
ax	-7033
出货量	-7034
学生们	-7035
的趋势	-7036
各族	-7037
PU	-7038
产销	-7039
婴儿	-7040
远离	-7041
党的二十大	-7042
BC	-7043
真相	-7044
浪漫	-7045
牢牢	-7046
通过了	-7047
只好	-7048
春运	-7049
激活	-7050
管理层	-7051
大部	-7052
▁他说	-7053
搜救	-7054
代替	-7055
痛点	-7056
篇章	-7057
了自己的	-7058
失误	-7059
传染病	-7060
还表示	-7061
自家	-7062
倾斜	-7063
巡回	-7064
取决于	-7065
公顷	-7066
不存在	-7067
周一	-7068
誉为	-7069
什么样的	-7070
国足	-7071
端的	-7072
还款	-7073
发达国家	-7074
这段	-7075
ili	-7076
亲属	-7077
应用场景	-7078
负责人表示	-7079
路面	-7080
增添	-7081
折叠	-7082
职位	-7083
的成功	-7084
》)	-7085
冻结	-7086
外援	-7087
数千	-7088
部的	-7089
近几年	-7090
资产阶级	-7091
大门	-7092
是为	-7093
就已经	-7094
异地	-7095
工匠	-7096
传输	-7097
?」	-7098
急需	-7099
二氧化	-7100
希望能	-7101
作为一个	-7102
热带	-7103
膨胀	-7104
不下	-7105
一声	-7106
宾馆	-7107
黄色	-7108
初中	-7109
收窄	-7110
编剧	-7111
+”	-7112
一审	-7113
出动	-7114
基数	-7115
拨打	-7116
主题教育	-7117
To	-7118
台上	-7119
核心技术	-7120
业余	-7121
支柱	-7122
新业态	-7123
奶粉	-7124
尔街	-7125
巨额	-7126
买家	-7127
更具	-7128
渴望	-7129
朋友们	-7130
练习	-7131
深交所	-7132
单车	-7133
效力	-7134
排水	-7135
政府部门	-7136
本案	-7137
过年	-7138
筛选	-7139
使其	-7140
裁员	-7141
之前的	-7142
庞大的	-7143
步行	-7144
时长	-7145
▁苏	-7146
率达到	-7147
县人民法院	-7148
早晨	-7149
全面推进	-7150
特大	-7151
的大型	-7152
含有	-7153
鸡蛋	-7154
股的	-7155
福特	-7156
umber	-7157
字号	-7158
for	-7159
求职	-7160
体制改革	-7161
GW	-7162
发稿	-7163
格外	-7164
被困	-7165
返乡	-7166
省政府	-7167
在这一	-7168
将与	-7169
中证	-7170
而已	-7171
局的	-7172
瞄准	-7173
血压	-7174
又一	-7175
典型案例	-7176
勇气	-7177
河流	-7178
精密	-7179
ra	-7180
之初	-7181
了近	-7182
层层	-7183
风貌	-7184
生态保护	-7185
更重要的是	-7186
两条	-7187
航运	-7188
闭幕	-7189
和大	-7190
直升机	-7191
定向	-7192
大幅度	-7193
剧情	-7194
开采	-7195
因地	-7196
用药	-7197
ang	-7198
定于	-7199
伊斯兰	-7200
双手	-7201
步入	-7202
世界和平	-7203
何时	-7204
恶意	-7205
的专业	-7206
八十	-7207
今晚	-7208
主持人	-7209
我们会	-7210
平方公里	-7211
共青	-7212
发文	-7213
警务	-7214
医疗服务	-7215
职场	-7216
总队	-7217
榜样	-7218
文化交流	-7219
推迟	-7220
工伤	-7221
并无	-7222
据此	-7223
标注	-7224
厂房	-7225
全域	-7226
阴谋	-7227
灌溉	-7228
影响了	-7229
深度融合	-7230
实业	-7231
气体	-7232
达人	-7233
绿色低碳	-7234
毕业后	-7235
计划的	-7236
▁+	-7237
把它	-7238
改为	-7239
研学	-7240
Chat	-7241
投资建议	-7242
美国总统	-7243
中原	-7244
轮胎	-7245
办事处	-7246
展现了	-7247
资管	-7248
推特	-7249
达标	-7250
来临	-7251
没能	-7252
联席	-7253
光大	-7254
球场	-7255
的背景下	-7256
时间里	-7257
广汽	-7258
秋季	-7259
个国家	-7260
创投	-7261
人对	-7262
不同程度	-7263
围棋	-7264
直言	-7265
贬值	-7266
纪念馆	-7267
%)	-7268
▁日	-7269
一样的	-7270
万余元	-7271
按规定	-7272
垃圾分类	-7273
制宜	-7274
重量	-7275
左右的	-7276
减免	-7277
阿姨	-7278
身心	-7279
联想	-7280
适度	-7281
日表示	-7282
列宁	-7283
伟大复兴	-7284
企稳	-7285
为人民	-7286
户口	-7287
赞助	-7288
一直以来	-7289
和个人	-7290
中国式	-7291
我国的	-7292
的理念	-7293
准则	-7294
其中有	-7295
部副部长	-7296
▁数据显示	-7297
脸上	-7298
裁定	-7299
好事	-7300
▁如何	-7301
忙碌	-7302
不行	-7303
之时	-7304
靠近	-7305
为人	-7306
以内	-7307
治愈	-7308
的局面	-7309
▁郑	-7310
电机	-7311
一台	-7312
军区	-7313
又要	-7314
又一次	-7315
对公司	-7316
只会	-7317
前所未	-7318
▁由	-7319
削减	-7320
油田	-7321
世锦赛	-7322
站的	-7323
全球经济	-7324
预订	-7325
工业和	-7326
高品质	-7327
社会主义现代化	-7328
县域	-7329
塔尔	-7330
自从	-7331
收入的	-7332
奖项	-7333
种族	-7334
著名的	-7335
新兴产业	-7336
」,	-7337
扩建	-7338
当地的	-7339
了起来	-7340
初创	-7341
美容	-7342
生鲜	-7343
AA	-7344
生产总值	-7345
不幸	-7346
市场经济	-7347
的一大	-7348
职业教育	-7349
弟弟	-7350
余家	-7351
参保	-7352
影院	-7353
较强	-7354
书画	-7355
法人	-7356
轨道交通	-7357
但也	-7358
班列	-7359
的日子	-7360
采摘	-7361
的良好	-7362
年和	-7363
置业	-7364
六个	-7365
在与	-7366
切入	-7367
海淀	-7368
延安	-7369
拥抱	-7370
在这种	-7371
下称	-7372
中国政府	-7373
财物	-7374
推送	-7375
反诈	-7376
现有的	-7377
分析人士	-7378
转账	-7379
上课	-7380
花钱	-7381
▁当天	-7382
的成本	-7383
岁月	-7384
车身	-7385
的办法	-7386
大奖	-7387
招标	-7388
哪怕	-7389
民法	-7390
该市	-7391
进博会	-7392
inance	-7393
会被	-7394
水电	-7395
可能性	-7396
频率	-7397
举办了	-7398
婚礼	-7399
步骤	-7400
教室	-7401
畜牧	-7402
兴业	-7403
尔夫	-7404
满意度	-7405
严禁	-7406
只需	-7407
变现	-7408
器材	-7409
满满	-7410
检察官	-7411
规格	-7412
行业协会	-7413
村委会	-7414
疫情期间	-7415
喜剧	-7416
,「	-7417
仓储	-7418
时任	-7419
矿山	-7420
ate	-7421
历史文化	-7422
较小	-7423
必将	-7424
英文	-7425
他也	-7426
医院的	-7427
设有	-7428
贵阳	-7429
现代化的	-7430
英特尔	-7431
社会各界	-7432
不怕	-7433
年到	-7434
博弈	-7435
海拔	-7436
▁一位	-7437
的模式	-7438
乌鲁	-7439
”!	-7440
宗旨	-7441
监督管理局	-7442
队友	-7443
二期	-7444
路边	-7445
AM	-7446
当今	-7447
第十	-7448
优惠政策	-7449
:(	-7450
冷空气	-7451
深入开展	-7452
火星	-7453
转运	-7454
ey	-7455
思政	-7456
执法人员	-7457
买房	-7458
澎湃新闻	-7459
使馆	-7460
泡沫	-7461
走廊	-7462
退市	-7463
通关	-7464
纪录片	-7465
不懂	-7466
火锅	-7467
的话题	-7468
第四季度	-7469
行动计划	-7470
批判	-7471
▁英国	-7472
要以	-7473
完成后	-7474
一体的	-7475
常年	-7476
比利	-7477
深厚	-7478
不构成	-7479
出国	-7480
接入	-7481
饰演	-7482
律师事务所	-7483
也可	-7484
绿地	-7485
参会	-7486
近年	-7487
Pro	-7488
▁总	-7489
副会长	-7490
难民	-7491
万台	-7492
并向	-7493
木齐	-7494
▁北京市	-7495
咱们	-7496
剧场	-7497
证件	-7498
输送	-7499
形成的	-7500
引发了	-7501
的未来	-7502
不懈	-7503
发病	-7504
维亚	-7505
小红书	-7506
复工复产	-7507
关切	-7508
的代表	-7509
纳斯	-7510
赌博	-7511
重启	-7512
个省	-7513
我们就	-7514
完了	-7515
打出	-7516
乌鲁木齐	-7517
新西兰	-7518
安保	-7519
光明网	-7520
采取了	-7521
向你	-7522
灯光	-7523
景象	-7524
的艺术	-7525
率领	-7526
培训班	-7527
获得感	-7528
▁再	-7529
中等	-7530
风暴	-7531
更容易	-7532
▁是	-7533
单价	-7534
得好	-7535
永久	-7536
老龄	-7537
转为	-7538
疑问	-7539
展会	-7540
成人	-7541
浓度	-7542
自由贸易	-7543
水源	-7544
北京大学	-7545
锂电池	-7546
违法违规	-7547
净化	-7548
入手	-7549
制止	-7550
革新	-7551
▁还有	-7552
邓小平	-7553
▁Pro	-7554
承接	-7555
筑牢	-7556
是否有	-7557
宣传活动	-7558
生产基地	-7559
pen	-7560
就诊	-7561
姓名	-7562
一年的	-7563
ri	-7564
内阁	-7565
扣非	-7566
竣工	-7567
如果没有	-7568
污染防治	-7569
名片	-7570
射击	-7571
和国家	-7572
在校	-7573
有色	-7574
留守	-7575
花了	-7576
aaS	-7577
为契机	-7578
发票	-7579
白云	-7580
ME	-7581
奋进	-7582
研讨会	-7583
检修	-7584
快速增长	-7585
居然	-7586
不当	-7587
扫描	-7588
主办的	-7589
收紧	-7590
一生	-7591
几百	-7592
污染物	-7593
采样	-7594
头条	-7595
次会议	-7596
扎根	-7597
新闻网	-7598
人权	-7599
的压力	-7600
海岸	-7601
该行	-7602
通告	-7603
不容易	-7604
城的	-7605
现行	-7606
三位	-7607
拆迁	-7608
汉语	-7609
是如何	-7610
简化	-7611
指导下	-7612
并举	-7613
受欢迎	-7614
那是	-7615
严格落实	-7616
公募基金	-7617
市政	-7618
当作	-7619
诗人	-7620
产业集群	-7621
拥堵	-7622
涨超	-7623
的位置	-7624
乡村旅游	-7625
做强	-7626
召回	-7627
股指	-7628
颗粒	-7629
成都市	-7630
时间为	-7631
注册资本	-7632
州区	-7633
历史新高	-7634
健康的	-7635
的人们	-7636
适时	-7637
美好的	-7638
传出	-7639
发酵	-7640
州的	-7641
早日	-7642
新房	-7643
极大的	-7644
的发生	-7645
发展改革	-7646
潜艇	-7647
已经被	-7648
比例为	-7649
变异	-7650
眼下	-7651
说起	-7652
上百	-7653
也对	-7654
网约车	-7655
价格的	-7656
三种	-7657
战略性	-7658
推动了	-7659
有哪些	-7660
ock	-7661
投身	-7662
克尔	-7663
就算	-7664
糖尿	-7665
话语	-7666
共青团	-7667
常见的	-7668
中队	-7669
我们对	-7670
odel	-7671
增加值	-7672
党的十八大	-7673
像是	-7674
白宫	-7675
NBA	-7676
中国在	-7677
加紧	-7678
等于	-7679
赠送	-7680
新年	-7681
首家	-7682
的平台	-7683
二年	-7684
正在进行	-7685
XX	-7686
运动会	-7687
净利润为	-7688
防线	-7689
不愿意	-7690
现阶段	-7691
安心	-7692
瑞幸	-7693
研发的	-7694
开发者	-7695
积极探索	-7696
均在	-7697
更要	-7698
运动的	-7699
管理部门	-7700
克强	-7701
民意	-7702
人们对	-7703
股市场	-7704
严格的	-7705
温馨	-7706
保护区	-7707
仍未	-7708
提高到	-7709
把自己	-7710
离子	-7711
科幻	-7712
缺席	-7713
过多	-7714
▁香港	-7715
聪明	-7716
余万元	-7717
机械化	-7718
配件	-7719
风口	-7720
和创新	-7721
副本	-7722
粤港	-7723
CD	-7724
节假日	-7725
AT	-7726
前面	-7727
▁未来	-7728
Facebook	-7729
票据	-7730
勇敢	-7731
因地制宜	-7732
展区	-7733
逆转	-7734
人大代表	-7735
售后	-7736
获利	-7737
该案	-7738
其中的	-7739
年轻的	-7740
**。	-7741
nd	-7742
不顾	-7743
不少人	-7744
finance	-7745
归属	-7746
电台	-7747
千里	-7748
拉萨	-7749
为核心的	-7750
柏林	-7751
论证	-7752
智能制造	-7753
点位	-7754
阳县	-7755
对阵	-7756
曲线	-7757
尤为	-7758
终结	-7759
投资基金	-7760
开始了	-7761
糖尿病	-7762
签字	-7763
▁国际	-7764
北斗	-7765
被人	-7766
驾车	-7767
法律责任	-7768
古老	-7769
呼和	-7770
▁X	-7771
街区	-7772
跟进	-7773
轨迹	-7774
送往	-7775
一一	-7776
GB	-7777
个项目	-7778
售卖	-7779
革命的	-7780
购置	-7781
跳动	-7782
口味	-7783
会出现	-7784
平凡	-7785
安全性	-7786
年全国	-7787
我很	-7788
建立起	-7789
热搜	-7790
光电	-7791
减产	-7792
烟台	-7793
农作物	-7794
sina	-7795
动漫	-7796
有效地	-7797
if	-7798
大跌	-7799
的长	-7800
转发	-7801
试行	-7802
制度改革	-7803
重申	-7804
这一次	-7805
和小	-7806
▁SF	-7807
sh	-7808
解答	-7809
华尔街	-7810
不完全	-7811
民办	-7812
化肥	-7813
和高	-7814
报案	-7815
转债	-7816
调查研究	-7817
入场	-7818
打好	-7819
中国驻	-7820
商圈	-7821
干事	-7822
新人	-7823
灾难	-7824
电源	-7825
▁新浪	-7826
下发	-7827
▁何	-7828
手工	-7829
自助	-7830
陆军	-7831
意义的	-7832
大臣	-7833
模糊	-7834
国防部	-7835
是一名	-7836
等形式	-7837
之声	-7838
的地	-7839
短暂	-7840
车展	-7841
不管是	-7842
下乡	-7843
▁他们	-7844
授课	-7845
受害人	-7846
清算	-7847
公司将	-7848
积极的	-7849
合影	-7850
致使	-7851
宝贵	-7852
;“	-7853
具体的	-7854
同比增加	-7855
真诚	-7856
行使	-7857
有一定	-7858
▁市	-7859
同年	-7860
英镑	-7861
的重要组成部分	-7862
三峡	-7863
东亚	-7864
公开发	-7865
主要有	-7866
和对	-7867
缩减	-7868
学习贯彻	-7869
进一步提高	-7870
环境下	-7871
▁多	-7872
去年的	-7873
经济学	-7874
公告送达	-7875
不去	-7876
主体责任	-7877
什么时候	-7878
发表声明	-7879
时说	-7880
燃烧	-7881
市场竞争	-7882
表现出	-7883
总决赛	-7884
▁被	-7885
车内	-7886
利于	-7887
落在	-7888
幸福感	-7889
头发	-7890
▁这种	-7891
不一	-7892
和中	-7893
▁而在	-7894
价格为	-7895
向往	-7896
布置	-7897
统一的	-7898
伟达	-7899
▁of	-7900
走在	-7901
身为	-7902
奥斯	-7903
能够在	-7904
设计的	-7905
关键词	-7906
挑选	-7907
法的	-7908
牌照	-7909
蓝球	-7910
网络诈骗	-7911
飙升	-7912
钓鱼	-7913
生物医药	-7914
不动产	-7915
入市	-7916
另据	-7917
以下的	-7918
组委会	-7919
年产	-7920
小时内	-7921
销售收入	-7922
稀土	-7923
体系的	-7924
类似的	-7925
ds	-7926
宣称	-7927
增长率	-7928
走高	-7929
西宁	-7930
韧性	-7931
为重点	-7932
▁问	-7933
最高气温	-7934
妹妹	-7935
实名	-7936
愿景	-7937
仍然是	-7938
增加到	-7939
MV	-7940
纪检监察	-7941
好评	-7942
物种	-7943
驿站	-7944
PV	-7945
价的	-7946
并为	-7947
月饼	-7948
三国	-7949
▁每	-7950
特区政府	-7951
足联	-7952
ess	-7953
延期	-7954
网信	-7955
指导意见	-7956
三人	-7957
爆料	-7958
工程建设	-7959
武警	-7960
新能源车	-7961
传闻	-7962
界的	-7963
记者说	-7964
供销	-7965
助您	-7966
卖家	-7967
市场对	-7968
什么是	-7969
副市长	-7970
督查	-7971
习近平主席	-7972
事物	-7973
蓝天	-7974
适宜	-7975
设置了	-7976
报销	-7977
珠宝	-7978
AC	-7979
期奖号	-7980
展出	-7981
报酬	-7982
管理人员	-7983
子上	-7984
撤离	-7985
生态系统	-7986
兵团	-7987
牙利	-7988
的可	-7989
新闻发言人	-7990
值为	-7991
吐槽	-7992
约占	-7993
充电桩	-7994
精细化	-7995
▁美	-7996
专精	-7997
出席了	-7998
掌声	-7999
等行业	-8000
社会保障	-8001
相关负责人表示	-8002
申购	-8003
时间的	-8004
的背后	-8005
一共	-8006
储蓄	-8007
宣言	-8008
心灵	-8009
收割	-8010
还得	-8011
ity	-8012
受害者	-8013
奠定了	-8014
特殊的	-8015
视为送达	-8016
保持在	-8017
闲置	-8018
收到了	-8019
开办	-8020
村干部	-8021
ak	-8022
产区	-8023
钥匙	-8024
ell	-8025
综合性	-8026
bc	-8027
废弃	-8028
招募	-8029
高地	-8030
支配	-8031
行人	-8032
在日本	-8033
的权利	-8034
我们可以	-8035
将军	-8036
必须要	-8037
载人	-8038
指令	-8039
二手车	-8040
唯一的	-8041
全国人大常委会	-8042
乐视	-8043
】**	-8044
可通过	-8045
超预期	-8046
时节	-8047
反思	-8048
匈牙利	-8049
气的	-8050
路号码	-8051
高科技	-8052
ech	-8053
强烈的	-8054
的所有	-8055
战绩	-8056
马里	-8057
世界各国	-8058
供热	-8059
民初	-8060
加快建设	-8061
▁,	-8062
精神的	-8063
重心	-8064
之一的	-8065
高风险	-8066
呼和浩特	-8067
社会责任	-8068
怎么样	-8069
没有人	-8070
升温	-8071
下车	-8072
书中	-8073
英伟达	-8074
的计划	-8075
国际合作	-8076
仍处于	-8077
店内	-8078
滨海	-8079
失去了	-8080
据统计	-8081
施行	-8082
北京的	-8083
玫瑰	-8084
十月	-8085
快捷	-8086
质押	-8087
募集资金	-8088
ev	-8089
总计	-8090
珍贵	-8091
体制机制	-8092
慢性	-8093
战役	-8094
精细	-8095
谣言	-8096
大选	-8097
典型的	-8098
消灭	-8099
该校	-8100
的功能	-8101
给自己	-8102
挖掘潜力	-8103
亲戚	-8104
款项	-8105
要是	-8106
RO	-8107
中断	-8108
又在	-8109
特新	-8110
难道	-8111
相较于	-8112
多边	-8113
的家庭	-8114
口腔	-8115
弹性	-8116
产出	-8117
道的	-8118
教育局	-8119
这么多	-8120
泄露	-8121
为主要	-8122
从业者	-8123
系列活动	-8124
加州	-8125
中华民族伟大复兴	-8126
被害人	-8127
亿欧元	-8128
勇于	-8129
接力	-8130
老旧	-8131
足够的	-8132
维奇	-8133
▁曾	-8134
主线	-8135
布拉	-8136
之后的	-8137
结束了	-8138
完工	-8139
了一份	-8140
卫健委	-8141
科学研究	-8142
说到	-8143
晚会	-8144
移送	-8145
管辖	-8146
诠释	-8147
提议	-8148
资金流向	-8149
边防	-8150
接受了	-8151
国际机场	-8152
拖欠	-8153
春季	-8154
研发投入	-8155
工作机制	-8156
例行	-8157
体系和	-8158
集团公司	-8159
在地	-8160
▁这次	-8161
是否会	-8162
储存	-8163
杜绝	-8164
贯通	-8165
兼职	-8166
外科	-8167
精度	-8168
还原	-8169
等服务	-8170
弱势	-8171
正处于	-8172
执勤	-8173
点多	-8174
一下子	-8175
擅自	-8176
般的	-8177
明确的	-8178
适用于	-8179
乐透	-8180
种业	-8181
铁矿	-8182
公证	-8183
难免	-8184
只不过	-8185
企业发展	-8186
着重	-8187
仅供	-8188
单日	-8189
阐述	-8190
问题是	-8191
机票	-8192
工信部	-8193
**,	-8194
各领域	-8195
生产企业	-8196
本网	-8197
将依法	-8198
长大	-8199
▁来自	-8200
金麒麟	-8201
千元	-8202
月开始	-8203
的一份	-8204
了个	-8205
小时的	-8206
不及预期	-8207
区分	-8208
粤港澳大	-8209
雄安	-8210
▁下一步	-8211
历时	-8212
理事长	-8213
以来的	-8214
等方面的	-8215
平原	-8216
增值税	-8217
新征程	-8218
服务和	-8219
刚需	-8220
大中	-8221
自杀	-8222
半年报	-8223
医疗卫生	-8224
最高人民法院	-8225
在对	-8226
等内容	-8227
着一	-8228
产地	-8229
▁另一方面	-8230
不予	-8231
无关	-8232
猜测	-8233
ESG	-8234
不移	-8235
化石	-8236
失望	-8237
省长	-8238
▁@	-8239
募资	-8240
实物	-8241
负荷	-8242
银保	-8243
为国家	-8244
的其他	-8245
制订	-8246
上传	-8247
放宽	-8248
找不到	-8249
席位	-8250
PPO	-8251
自贸区	-8252
房地产开发	-8253
时空	-8254
了吗	-8255
主办方	-8256
官方微博	-8257
杨某	-8258
特意	-8259
优异	-8260
军工	-8261
辈子	-8262
清醒	-8263
沉浸式	-8264
年纪	-8265
意图	-8266
一线城市	-8267
中海	-8268
儿女	-8269
在微博	-8270
▁两	-8271
四季	-8272
沪指	-8273
中标	-8274
几位	-8275
回调	-8276
队伍建设	-8277
布鲁	-8278
灭火	-8279
提速	-8280
客户的	-8281
开启了	-8282
恋爱	-8283
纳米	-8284
重塑	-8285
▁综合	-8286
睡觉	-8287
不断完善	-8288
深化改革	-8289
照明	-8290
四是	-8291
中国企业	-8292
极致	-8293
▁In	-8294
起飞	-8295
问责	-8296
浓厚	-8297
眼里	-8298
结果显示	-8299
目前在	-8300
▁过去	-8301
其实是	-8302
▁the	-8303
创造性	-8304
不让	-8305
赢得了	-8306
奋战	-8307
月起	-8308
安全和	-8309
路的	-8310
案件的	-8311
重要讲话	-8312
周五	-8313
我对	-8314
大家的	-8315
打造的	-8316
人民日报	-8317
具有重要	-8318
一律	-8319
▁江	-8320
缺失	-8321
管理中心	-8322
是谁	-8323
查明	-8324
还是要	-8325
的人员	-8326
春节期间	-8327
老婆	-8328
购车	-8329
量为	-8330
首款	-8331
朝阳区	-8332
观望	-8333
决策部署	-8334
这些问题	-8335
致电	-8336
积极推进	-8337
爆款	-8338
服务器	-8339
检疫	-8340
是大	-8341
牛奶	-8342
证券交易所	-8343
全员	-8344
所得税	-8345
NG	-8346
少了	-8347
引人	-8348
浏览	-8349
高点	-8350
产品和	-8351
化和	-8352
没人	-8353
参数	-8354
时隔	-8355
▁据台湾	-8356
网记者	-8357
▁实际上	-8358
斯的	-8359
全场	-8360
产业结构	-8361
双色	-8362
部位	-8363
苏宁	-8364
领先的	-8365
gb	-8366
恰恰	-8367
类别	-8368
碳中和	-8369
罗马尼亚	-8370
高价	-8371
过去了	-8372
主题机会	-8373
尔德	-8374
持续推进	-8375
迪士	-8376
牢记	-8377
专精特新	-8378
Al	-8379
面对面	-8380
思想政治	-8381
情的	-8382
回头	-8383
是他	-8384
FO	-8385
英勇	-8386
王国	-8387
典礼	-8388
奇偶比为	-8389
一笔	-8390
迪士尼	-8391
建国	-8392
发展改革委	-8393
优秀传统文化	-8394
江市	-8395
阵营	-8396
陶瓷	-8397
会展	-8398
偏好	-8399
非物质	-8400
寿命	-8401
惠及	-8402
要做	-8403
实际控制人	-8404
大宗商品	-8405
生机	-8406
饲养	-8407
合作关系	-8408
长假	-8409
▁中央	-8410
行政区	-8411
▁唐	-8412
劳模	-8413
汽车的	-8414
全国人民	-8415
养老服务	-8416
三板	-8417
演艺	-8418
。”(	-8419
FT	-8420
党史	-8421
华润	-8422
水资源	-8423
接口	-8424
水域	-8425
▁今日	-8426
奥林	-8427
同心	-8428
行李	-8429
区域内	-8430
质量和	-8431
余个	-8432
共和党	-8433
分析师研报	-8434
亿股	-8435
团购	-8436
姐妹	-8437
周转	-8438
摩根	-8439
本国	-8440
共产主义	-8441
局副局长	-8442
▁北	-8443
七十	-8444
查获	-8445
▁炒股就看	-8446
助您挖掘潜力	-8447
▁炒股就看金麒麟	-8448
牢固	-8449
玩法	-8450
政策和	-8451
负责同志	-8452
积水	-8453
回了	-8454
额外	-8455
对我们	-8456
管理有限公司	-8457
包裹	-8458
演唱会	-8459
▁韩	-8460
首日	-8461
一阵	-8462
留下了	-8463
深夜	-8464
育人	-8465
这块	-8466
的土地	-8467
▁北京时间	-8468
班长	-8469
订阅	-8470
趋于	-8471
顶层	-8472
的人群	-8473
同类	-8474
主教练	-8475
第一位	-8476
同比减少	-8477
航母	-8478
环境的	-8479
BM	-8480
女友	-8481
领军	-8482
千亿	-8483
乒乓球	-8484
美国经济	-8485
有何	-8486
也从	-8487
座椅	-8488
红线	-8489
前夕	-8490
抚养	-8491
同比上升	-8492
实的	-8493
来信	-8494
返还	-8495
丧失	-8496
奇怪	-8497
政党	-8498
精确	-8499
大面积	-8500
有网友	-8501
一刻	-8502
扭转	-8503
ov	-8504
工作报告	-8505
义务教育	-8506
归属于上市公司	-8507
气息	-8508
较好的	-8509
之大	-8510
恩来	-8511
手的	-8512
两国人民	-8513
竞选	-8514
开发的	-8515
假冒	-8516
持久	-8517
无可	-8518
外商	-8519
走私	-8520
在我们	-8521
轰炸	-8522
ace	-8523
套餐	-8524
本领	-8525
共同富裕	-8526
科技公司	-8527
入户	-8528
想着	-8529
直观	-8530
主要的	-8531
强降雨	-8532
正能量	-8533
购房者	-8534
处以	-8535
极具	-8536
百亿	-8537
▁AI	-8538
有不少	-8539
养生	-8540
文本	-8541
是很	-8542
利的	-8543
坦克	-8544
天空	-8545
在现场	-8546
风险提示	-8547
构筑	-8548
▁文章	-8549
太太	-8550
还需	-8551
描绘	-8552
中最	-8553
答复	-8554
这一切	-8555
工业互联网	-8556
交代	-8557
顺应	-8558
落到	-8559
党支部书记	-8560
先生说	-8561
如期	-8562
旋律	-8563
路透	-8564
了一次	-8565
年前的	-8566
成熟的	-8567
专家学者	-8568
日军	-8569
第二届	-8570
体量	-8571
雷锋	-8572
首创	-8573
发布公告	-8574
积极开展	-8575
互联网金融	-8576
填补	-8577
操纵	-8578
文中	-8579
真理	-8580
难得	-8581
先生的	-8582
资金的	-8583
下达	-8584
低温	-8585
办好	-8586
海底	-8587
)](	-8588
不成	-8589
烟花	-8590
那天	-8591
形势下	-8592
ark	-8593
巴萨	-8594
教科	-8595
领事	-8596
高新	-8597
全产业链	-8598
泊尔	-8599
导致的	-8600
酒精	-8601
CBA	-8602
进一步完善	-8603
和生活	-8604
失踪	-8605
上汽	-8606
病的	-8607
bcx	-8608
管委会	-8609
jbcx	-8610
rili	-8611
堪称	-8612
比去年	-8613
增强了	-8614
着的	-8615
MO	-8616
参谋	-8617
性别	-8618
正值	-8619
损伤	-8620
水上	-8621
纲要	-8622
配方	-8623
民法典	-8624
出场	-8625
受众	-8626
骄傲	-8627
给他们	-8628
曾表示	-8629
在去年	-8630
所有人	-8631
条规定	-8632
销售的	-8633
格尔	-8634
可以看出	-8635
均已	-8636
搞好	-8637
的新型	-8638
的革命	-8639
中俄	-8640
判决书	-8641
论坛上	-8642
感叹	-8643
茶饮	-8644
连日	-8645
知识分子	-8646
挂钩	-8647
丰台	-8648
好奇	-8649
失信	-8650
和完善	-8651
分裂	-8652
行政执法	-8653
分成	-8654
系统性	-8655
上报	-8656
政策措施	-8657
相关规定	-8658
但不	-8659
营运	-8660
多样化	-8661
文物保护	-8662
习近平新时代	-8663
▁可	-8664
约有	-8665
将通过	-8666
并不能	-8667
交流合作	-8668
水面	-8669
默默	-8670
一个是	-8671
突出问题	-8672
位数	-8673
军方	-8674
犹豫	-8675
▁m	-8676
免税	-8677
发热	-8678
收缩	-8679
而这	-8680
略有	-8681
篇文章	-8682
前者	-8683
中小微	-8684
DR	-8685
合一	-8686
%)、	-8687
的利益	-8688
三农	-8689
车厢	-8690
就近	-8691
度过	-8692
吸纳	-8693
主业	-8694
中国和	-8695
作出的	-8696
等措施	-8697
坚定不移	-8698
入侵	-8699
首要	-8700
剩下	-8701
大户	-8702
所能	-8703
,‘	-8704
天内	-8705
签署了	-8706
运送	-8707
供给侧	-8708
的视频	-8709
在哪里	-8710
实质性	-8711
经济新闻	-8712
专访	-8713
刑法	-8714
懂得	-8715
边际	-8716
让大家	-8717
停产	-8718
周三	-8719
暴跌	-8720
蛋糕	-8721
在当地	-8722
持续提升	-8723
下班	-8724
抑郁	-8725
调查显示	-8726
佣金	-8727
西瓜	-8728
科学的	-8729
质效	-8730
比利时	-8731
几年来	-8732
万的	-8733
家住	-8734
广电	-8735
洞察	-8736
进出	-8737
奢侈品	-8738
安市	-8739
颁布	-8740
出台了	-8741
广泛的	-8742
下方	-8743
两周	-8744
但其	-8745
器官	-8746
民用	-8747
场面	-8748
GC	-8749
IR	-8750
写了	-8751
承压	-8752
行车	-8753
时期的	-8754
保证金	-8755
揭示	-8756
和工作	-8757
走低	-8758
在国家	-8759
自称	-8760
中国青年	-8761
厅长	-8762
防火	-8763
一九五	-8764
影响到	-8765
一群	-8766
剧中	-8767
日本的	-8768
自研	-8769
期满后	-8770
非物质文化遗产	-8771
印刷	-8772
治国	-8773
的努力	-8774
观众的	-8775
之美	-8776
粤港澳大湾区	-8777
加码	-8778
多么	-8779
愤怒	-8780
干旱	-8781
的一位	-8782
即时	-8783
罢工	-8784
冷静	-8785
SA	-8786
养成	-8787
爱奇	-8788
城市建设	-8789
上新	-8790
不必	-8791
论述	-8792
有益	-8793
页面	-8794
三家	-8795
充满了	-8796
双色球	-8797
签订了	-8798
六大	-8799
桂林	-8800
生素	-8801
爱奇艺	-8802
的山	-8803
是全球	-8804
环比增长	-8805
经济效益	-8806
渗透率	-8807
密切接触	-8808
为实现	-8809
与之	-8810
消防安全	-8811
New	-8812
家门口	-8813
的水平	-8814
起来了	-8815
母公司	-8816
命中	-8817
开会	-8818
并表示	-8819
委员长	-8820
计划在	-8821
两项	-8822
各区	-8823
疼痛	-8824
限额	-8825
贝壳	-8826
增大	-8827
大棚	-8828
打赢	-8829
服务商	-8830
接下来的	-8831
峰值	-8832
洽谈	-8833
患者的	-8834
关节	-8835
号的	-8836
这支	-8837
阴性	-8838
同样的	-8839
抢劫	-8840
金融市场	-8841
ue	-8842
入围	-8843
风力	-8844
▁记者从	-8845
社会组织	-8846
费率	-8847
不法	-8848
保供	-8849
元旦	-8850
帷幕	-8851
执业	-8852
细菌	-8853
共产党员	-8854
分数	-8855
精致	-8856
金钱	-8857
在经济	-8858
不断增强	-8859
境外输入	-8860
专场	-8861
教导	-8862
新型冠状病毒	-8863
要从	-8864
▁市场	-8865
的电影	-8866
名人	-8867
不同于	-8868
但如果	-8869
南京市	-8870
发现的	-8871
劳动合同	-8872
的预期	-8873
疫苗接种	-8874
yl	-8875
合作协议	-8876
但却	-8877
提倡	-8878
称赞	-8879
wit	-8880
市委书记	-8881
日报记者	-8882
出身	-8883
商城	-8884
形式的	-8885
删除	-8886
巴克	-8887
造假	-8888
雷斯	-8889
封锁	-8890
愈发	-8891
旺盛	-8892
说过	-8893
所在地	-8894
最后的	-8895
主观	-8896
专家组	-8897
知情人士	-8898
天使	-8899
食材	-8900
中国科学院	-8901
肌肉	-8902
可再生	-8903
所致	-8904
此案	-8905
越野	-8906
要求的	-8907
深刻的	-8908
考量	-8909
Model	-8910
乡亲	-8911
触及	-8912
在建	-8913
并不意味着	-8914
全身	-8915
萎缩	-8916
和市场	-8917
一汽	-8918
净利	-8919
案发	-8920
社论	-8921
趣味	-8922
采访中	-8923
奋力	-8924
更低	-8925
管理制度	-8926
梅西	-8927
聘请	-8928
的整体	-8929
宣传教育	-8930
是一项	-8931
开局	-8932
表述	-8933
助学	-8934
派遣	-8935
▁让	-8936
中青	-8937
联手	-8938
国资委	-8939
主要包括	-8940
下同	-8941
蚂蚁	-8942
▁相比	-8943
的竞争	-8944
的建议	-8945
变速	-8946
奶茶	-8947
受益于	-8948
期权	-8949
盘活	-8950
笑容	-8951
赛中	-8952
但我们	-8953
突出的	-8954
管理人	-8955
听证	-8956
大概率	-8957
这样做	-8958
至关重要	-8959
牛肉	-8960
重返	-8961
京剧	-8962
才有	-8963
报考	-8964
矩阵	-8965
表决	-8966
确定性	-8967
反腐	-8968
推向	-8969
莱坞	-8970
高校毕业生	-8971
花顺	-8972
也已	-8973
手法	-8974
影响力的	-8975
内蒙古自治区	-8976
美债	-8977
海外市场	-8978
游击	-8979
珍惜	-8980
金股	-8981
他们对	-8982
团的	-8983
加强与	-8984
海事	-8985
成立的	-8986
日正式	-8987
领导的	-8988
au	-8989
极限	-8990
发表了	-8991
邮箱	-8992
排污	-8993
公司和	-8994
发展规划	-8995
参照	-8996
引资	-8997
筹集	-8998
育种	-8999
gle	-9000
的一系列	-9001
日宣布	-9002
守法	-9003
病房	-9004
权重	-9005
歌舞	-9006
不安	-9007
表达了	-9008
入了	-9009
给她	-9010
六年	-9011
国内的	-9012
标普	-9013
树木	-9014
通风	-9015
消防救援	-9016
一波	-9017
不堪	-9018
注销	-9019
更强	-9020
甚至是	-9021
摆在	-9022
钢材	-9023
调整为	-9024
层的	-9025
洛阳	-9026
在会上	-9027
▁现	-9028
有害	-9029
缩影	-9030
在我国	-9031
在香港	-9032
奔赴	-9033
抵制	-9034
网球	-9035
正常的	-9036
▁其	-9037
科技的	-9038
一举	-9039
乘车	-9040
应收	-9041
杀人	-9042
看病	-9043
观赏	-9044
进驻	-9045
任务的	-9046
打响	-9047
抽查	-9048
按时	-9049
查验	-9050
哈萨	-9051
美术馆	-9052
万桶	-9053
独自	-9054
上交所	-9055
高尔夫	-9056
新政	-9057
email	-9058
se	-9059
最有	-9060
许多人	-9061
水产	-9062
硅谷	-9063
轻易	-9064
事业的	-9065
高出	-9066
依次	-9067
而上	-9068
公诉	-9069
模仿	-9070
▁将	-9071
华裔	-9072
导游	-9073
恶性	-9074
仪式上	-9075
期刊	-9076
党和国家	-9077
加沙	-9078
周二	-9079
不仅如此	-9080
发育	-9081
短剧	-9082
通过对	-9083
不绝	-9084
排行	-9085
紧迫	-9086
露营	-9087
对他	-9088
理会	-9089
羽毛	-9090
目标是	-9091
这将	-9092
头脑	-9093
app	-9094
固定资产	-9095
国家统计局	-9096
一分	-9097
匹克	-9098
。』	-9099
实实在	-9100
的主题	-9101
还包括	-9102
一番	-9103
哈哈	-9104
的一名	-9105
人寿	-9106
得更	-9107
抱怨	-9108
加重	-9109
得上	-9110
必需	-9111
见过	-9112
集资	-9113
出任	-9114
打破了	-9115
做过	-9116
动荡	-9117
白银	-9118
助攻	-9119
月球	-9120
牡丹	-9121
透过	-9122
防空	-9123
出入境	-9124
资产负债	-9125
专职	-9126
友好的	-9127
红十字	-9128
那就	-9129
一二	-9130
在华	-9131
支持和	-9132
日内瓦	-9133
来到了	-9134
海内外	-9135
出土	-9136
启用	-9137
周四	-9138
契合	-9139
开花	-9140
字节跳动	-9141
不已	-9142
的照片	-9143
假设	-9144
滥用	-9145
▁东	-9146
十三五	-9147
布尔	-9148
越大	-9149
等技术	-9150
保持着	-9151
▁记者了解到	-9152
动车	-9153
公司与	-9154
医务人员	-9155
▁Q	-9156
区法院	-9157
葡萄牙	-9158
设备的	-9159
就地	-9160
平板	-9161
诸如	-9162
权限	-9163
回应称	-9164
港交所	-9165
北向	-9166
宣告	-9167
ard	-9168
设立了	-9169
拼搏	-9170
雾霾	-9171
催化	-9172
地在	-9173
重回	-9174
切尔	-9175
名叫	-9176
定增	-9177
型企业	-9178
就是一个	-9179
自主品牌	-9180
优越	-9181
拉美	-9182
隐藏	-9183
投融资	-9184
概念股	-9185
oogle	-9186
工业企业	-9187
世代	-9188
体重	-9189
门前	-9190
首付	-9191
就是在	-9192
亿吨	-9193
和他	-9194
游行	-9195
清洁能源	-9196
机型	-9197
英寸	-9198
▁St	-9199
规避	-9200
超标	-9201
合适的	-9202
%/	-9203
入股	-9204
品的	-9205
爱尔	-9206
明了	-9207
纪委监委	-9208
动手	-9209
顶尖	-9210
积极推动	-9211
之道	-9212
情况的	-9213
了他	-9214
积极作用	-9215
优化营商环境	-9216
你是	-9217
皇马	-9218
语文	-9219
尼泊尔	-9220
两侧	-9221
小伙	-9222
彼时	-9223
酒吧	-9224
无疑是	-9225
始终坚持	-9226
宜居	-9227
海报	-9228
也好	-9229
恐慌	-9230
机电	-9231
自卫	-9232
跳水	-9233
以赴	-9234
日和	-9235
流浪	-9236
税费	-9237
▁第四	-9238
橡胶	-9239
下降了	-9240
地缘	-9241
就这样	-9242
清晨	-9243
秉持	-9244
他又	-9245
博主	-9246
沉淀	-9247
只需要	-9248
遇到了	-9249
甄选	-9250
▁报道	-9251
自营	-9252
画家	-9253
没什么	-9254
同比下滑	-9255
制片	-9256
呼声	-9257
为我们	-9258
基金公司	-9259
美妆	-9260
规章	-9261
财年	-9262
商量	-9263
已超过	-9264
被誉为	-9265
内需	-9266
人民银行	-9267
AD	-9268
丹麦	-9269
名录	-9270
舒服	-9271
▁除	-9272
并以	-9273
发布公告称	-9274
鲜花	-9275
日本政府	-9276
生态环境保护	-9277
伪造	-9278
古典	-9279
▁本报北京	-9280
卡车	-9281
县长	-9282
不算	-9283
哥伦	-9284
和美国	-9285
平均水平	-9286
减税	-9287
该院	-9288
比赛的	-9289
CT	-9290
反映出	-9291
肥料	-9292
文化产业	-9293
的需要	-9294
放下	-9295
和产业	-9296
小事	-9297
一再	-9298
战斗力	-9299
信息显示	-9300
偶然	-9301
引发的	-9302
北海	-9303
多达	-9304
特别是在	-9305
很大程度上	-9306
器件	-9307
集合	-9308
在世界	-9309
还有一个	-9310
零食	-9311
眼光	-9312
自公告	-9313
玩笑	-9314
组的	-9315
准备工作	-9316
、《	-9317
时常	-9318
了许多	-9319
大米	-9320
得出	-9321
所说	-9322
全力以赴	-9323
雨水	-9324
ive	-9325
偶尔	-9326
游览	-9327
给人	-9328
的想法	-9329
▁到	-9330
主板	-9331
地进行	-9332
▁宋	-9333
上榜	-9334
第二大	-9335
就连	-9336
清洗	-9337
事迹	-9338
三千	-9339
移植	-9340
话剧	-9341
意识和	-9342
磋商	-9343
避险	-9344
高涨	-9345
不仅要	-9346
平米	-9347
傍晚	-9348
去看	-9349
自强	-9350
县政府	-9351
相对于	-9352
全面提升	-9353
银河	-9354
床上	-9355
eta	-9356
实施的	-9357
手表	-9358
被盗	-9359
尔斯	-9360
裁决	-9361
游玩	-9362
合唱	-9363
利用率	-9364
▁数据	-9365
我们是	-9366
▁后	-9367
损坏	-9368
小小的	-9369
Open	-9370
仅供参考	-9371
惩罚	-9372
餐馆	-9373
各省	-9374
启发	-9375
收受	-9376
抢占	-9377
车队	-9378
根本上	-9379
半决赛	-9380
粮食安全	-9381
▁c	-9382
写字	-9383
大片	-9384
这片	-9385
会议的	-9386
巴嫩	-9387
朝着	-9388
跃进	-9389
▁至于	-9390
与合作	-9391
农业部	-9392
黎巴嫩	-9393
协同发展	-9394
捐献	-9395
火炬	-9396
高潮	-9397
的名字	-9398
污水处理	-9399
场合	-9400
▁报告	-9401
综合治理	-9402
疫情防控工作	-9403
对照	-9404
氢能	-9405
洛杉	-9406
绿水	-9407
▁上述	-9408
公立	-9409
年轻人的	-9410
热心	-9411
致敬	-9412
委员会主席	-9413
吸烟	-9414
无力	-9415
案情	-9416
点燃	-9417
倾向于	-9418
各地的	-9419
宣判	-9420
建军	-9421
个月内	-9422
有一种	-9423
分析认为	-9424
城中	-9425
泽民	-9426
ine	-9427
建设中	-9428
影响的	-9429
▁图片来源	-9430
洛杉矶	-9431
上千	-9432
下单	-9433
事关	-9434
光学	-9435
安居	-9436
人才的	-9437
没有什么	-9438
四百	-9439
的王	-9440
重重	-9441
不含	-9442
校外	-9443
联社	-9444
另一种	-9445
孔子	-9446
民兵	-9447
mil	-9448
是国家	-9449
复旦	-9450
为群众	-9451
两级	-9452
放到	-9453
疏导	-9454
跌停	-9455
日常生活	-9456
大爷	-9457
决定了	-9458
如今的	-9459
网络上	-9460
Wind	-9461
我们必须	-9462
后再	-9463
该县	-9464
ian	-9465
核算	-9466
走的	-9467
走过	-9468
展厅	-9469
平静	-9470
江区	-9471
研究报告	-9472
看上去	-9473
金融危机	-9474
近百	-9475
阶段的	-9476
出炉	-9477
的身份	-9478
第一财经	-9479
乱象	-9480
这在	-9481
累积	-9482
你会	-9483
新材	-9484
未必	-9485
车载	-9486
副秘书长	-9487
仍将	-9488
亚军	-9489
等地的	-9490
那时候	-9491
阿尔巴	-9492
学院教授	-9493
五星	-9494
住户	-9495
中国汽车	-9496
名誉	-9497
范畴	-9498
辩论	-9499
分割	-9500
的出现	-9501
携程	-9502
这句话	-9503
交易的	-9504
比上年	-9505
移动互联网	-9506
人性	-9507
着急	-9508
糟糕	-9509
不负	-9510
五千	-9511
可惜	-9512
客厅	-9513
齐全	-9514
简直	-9515
网联	-9516
市场中	-9517
那么多	-9518
投机	-9519
抗旱	-9520
的女	-9521
意义上	-9522
商报记者	-9523
中国人民银行	-9524
驻华	-9525
▁广州	-9526
工作日	-9527
保费	-9528
起火	-9529
客户提供	-9530
科技大学	-9531
一来	-9532
对自己	-9533
却在	-9534
被骗	-9535
直播带货	-9536
有意	-9537
的生命	-9538
双双	-9539
如果不	-9540
从来没有	-9541
视察	-9542
跑到	-9543
号楼	-9544
拒不	-9545
体能	-9546
保荐	-9547
银川	-9548
给大家	-9549
晚报记者	-9550
集会	-9551
亲人	-9552
改正	-9553
没收	-9554
这让	-9555
集结	-9556
战争的	-9557
其后	-9558
点和	-9559
访华	-9560
飞船	-9561
stock	-9562
样板	-9563
往返	-9564
▁专家	-9565
已连续	-9566
▁用	-9567
七年	-9568
冰箱	-9569
加拉	-9570
各家	-9571
每一次	-9572
不小	-9573
有一天	-9574
短线	-9575
的角色	-9576
可再生能源	-9577
一贯	-9578
多久	-9579
孤独	-9580
多层次	-9581
实现营收	-9582
神奇	-9583
调解员	-9584
服务保障	-9585
再现	-9586
融券	-9587
研究的	-9588
目前正在	-9589
专业合作社	-9590
切换	-9591
现已	-9592
小龙	-9593
的股权	-9594
起到了	-9595
套房	-9596
气质	-9597
肇事	-9598
执照	-9599
赛前	-9600
走强	-9601
风情	-9602
赞同	-9603
造林	-9604
鲁迅	-9605
密切关注	-9606
比如说	-9607
▁U	-9608
卡塔尔	-9609
层面的	-9610
为目标	-9611
生活在	-9612
绝大部分	-9613
战机	-9614
刑事责任	-9615
西湖	-9616
依然是	-9617
偏低	-9618
周岁	-9619
套路	-9620
缓和	-9621
些时候	-9622
可乐	-9623
经济带	-9624
保定	-9625
MS	-9626
澳洲	-9627
跌超	-9628
过硬	-9629
电影节	-9630
获得的	-9631
某的	-9632
毛泽东思想	-9633
的一天	-9634
专项整治	-9635
EC	-9636
曼联	-9637
国际贸易	-9638
公共交通	-9639
经纬	-9640
从去年	-9641
村村民	-9642
的共同	-9643
研究和	-9644
财报显示	-9645
深的	-9646
领导班子	-9647
每亩	-9648
集成电路	-9649
全流程	-9650
爱国主义	-9651
收回	-9652
疲软	-9653
武术	-9654
公安分局	-9655
▁p	-9656
▁『	-9657
有两	-9658
劳工	-9659
赶赴	-9660
的概念	-9661
的提升	-9662
。"	-9663
不然	-9664
总数的	-9665
未成年	-9666
中毒	-9667
室外	-9668
操作系统	-9669
一本	-9670
保密	-9671
净流出	-9672
机构和	-9673
这不是	-9674
东海	-9675
修理	-9676
恐惧	-9677
▁b	-9678
又能	-9679
延迟	-9680
终点	-9681
知名度	-9682
▁and	-9683
充实	-9684
电信网络诈骗	-9685
颇为	-9686
ore	-9687
被评为	-9688
飞行员	-9689
伙伴关系	-9690
服务体系	-9691
值得一提的是	-9692
冒险	-9693
分流	-9694
OPPO	-9695
还有很多	-9696
亮眼	-9697
打车	-9698
排在	-9699
罪行	-9700
评分	-9701
是通过	-9702
重点关注	-9703
民主共和国	-9704
频次	-9705
的根本	-9706
填报	-9707
将迎来	-9708
▁新京报讯	-9709
ai	-9710
兑换	-9711
保障性	-9712
的个人	-9713
明确规定	-9714
合金	-9715
底蕴	-9716
庞大	-9717
舞台上	-9718
这几年	-9719
后卫	-9720
设想	-9721
工人阶级	-9722
为自己	-9723
清明	-9724
便于	-9725
居前	-9726
越多	-9727
高产	-9728
有两个	-9729
上车	-9730
▁关注	-9731
西斯	-9732
的经营	-9733
正式启动	-9734
阿联	-9735
电解	-9736
还存在	-9737
清除	-9738
▁本届	-9739
实践活动	-9740
证券日报	-9741
学子	-9742
相处	-9743
统战	-9744
阿尔及	-9745
为他们	-9746
李克强	-9747
的一家	-9748
半个	-9749
感的	-9750
出游	-9751
能耗	-9752
赛的	-9753
注意力	-9754
不断扩大	-9755
但对	-9756
北上	-9757
口径	-9758
巾帼	-9759
溯源	-9760
将由	-9761
科目	-9762
美好生活	-9763
每日经济新闻	-9764
做到了	-9765
音乐会	-9766
说服	-9767
文明的	-9768
较去年同期	-9769
▁许	-9770
交谈	-9771
市盈	-9772
抵抗	-9773
金砖	-9774
分队	-9775
过程中的	-9776
Sp	-9777
名额	-9778
建的	-9779
节水	-9780
供暖	-9781
选股	-9782
为主题的	-9783
哥伦比亚	-9784
牵引	-9785
恒生	-9786
未知	-9787
签名	-9788
一股	-9789
捍卫	-9790
贴近	-9791
学费	-9792
得了	-9793
微笑	-9794
北京时间	-9795
喝酒	-9796
值得注意的是	-9797
期盼	-9798
不完全统计	-9799
创作的	-9800
全资子公司	-9801
初衷	-9802
遗传	-9803
帮助下	-9804
要注意	-9805
我们希望	-9806
▁新华社记者	-9807
别墅	-9808
变迁	-9809
城县	-9810
该股	-9811
管理工作	-9812
在南	-9813
来水	-9814
进一步扩大	-9815
阵风	-9816
退役军人	-9817
ER	-9818
日产	-9819
安静	-9820
省内	-9821
跌破	-9822
带你	-9823
得起	-9824
长久	-9825
高通	-9826
有小	-9827
资产的	-9828
职业生涯	-9829
他将	-9830
死了	-9831
躺在	-9832
处理器	-9833
学习的	-9834
公司股份	-9835
贫困地区	-9836
教育和	-9837
各有	-9838
中西部	-9839
英格兰	-9840
也非常	-9841
政务服务	-9842
加持	-9843
十余	-9844
警力	-9845
的人物	-9846
的调查	-9847
等信息	-9848
该如何	-9849
严厉打击	-9850
phone	-9851
点半	-9852
答应	-9853
▁in	-9854
短时间内	-9855
比去年同期	-9856
午后	-9857
纽带	-9858
脂肪	-9859
民族团结	-9860
▁number	-9861
专区	-9862
这与	-9863
震撼	-9864
区域的	-9865
▁Y	-9866
收支	-9867
无比	-9868
着陆	-9869
据介绍	-9870
消费的	-9871
竞价	-9872
篮板	-9873
联名	-9874
不到位	-9875
临床试验	-9876
投向	-9877
打造了	-9878
有多少	-9879
首脑	-9880
全长	-9881
首轮	-9882
族自治区	-9883
之星	-9884
温和	-9885
起伏	-9886
雕塑	-9887
事业发展	-9888
前所未有的	-9889
国旗	-9890
还说	-9891
体的	-9892
参与了	-9893
不难	-9894
房东	-9895
环比下降	-9896
外面	-9897
老公	-9898
钱的	-9899
尤其是在	-9900
生命周期	-9901
其间	-9902
对标	-9903
成立以来	-9904
未来发展	-9905
很重要	-9906
传说	-9907
保利	-9908
揭牌	-9909
为准	-9910
复式	-9911
▁警方	-9912
患有	-9913
疲劳	-9914
违背	-9915
BS	-9916
周恩来	-9917
拿到了	-9918
批复	-9919
也可能	-9920
高效的	-9921
TOP	-9922
本金	-9923
热的	-9924
乐趣	-9925
在这些	-9926
根基	-9927
现身	-9928
司司长	-9929
成为一个	-9930
人民币汇率	-9931
耳机	-9932
应有的	-9933
亲密	-9934
见习	-9935
等功能	-9936
里程碑	-9937
经济损失	-9938
渔船	-9939
这部分	-9940
人间	-9941
地把	-9942
民心	-9943
工人们	-9944
前瞻	-9945
▁中新社北京	-9946
▁因	-9947
人道	-9948
角落	-9949
国泰	-9950
等的	-9951
渔民	-9952
凭证	-9953
通货	-9954
刚才	-9955
推销	-9956
支行	-9957
涉事	-9958
HK	-9959
事先	-9960
事业部	-9961
时间和	-9962
的条件	-9963
行业内	-9964
分别增长	-9965
点击查看	-9966
冲刺	-9967
多年前	-9968
的地区	-9969
美国和	-9970
不准	-9971
年会	-9972
等产品	-9973
答辩	-9974
好莱坞	-9975
田径	-9976
不错的	-9977
需要在	-9978
总共	-9979
继续保持	-9980
专科	-9981
图案	-9982
拉丁	-9983
明的	-9984
纳税人	-9985
老人的	-9986
真人	-9987
近两年	-9988
首先要	-9989
倾听	-9990
题为	-9991
大城市	-9992
展现出	-9993
手动	-9994
数智	-9995
独立的	-9996
重大的	-9997
中国国家	-9998
头上	-9999
碳酸	-10000
反垄断	-10001
公益诉讼	-10002
是国内	-10003
给出了	-10004
大哥	-10005
属地	-10006
工业和信息化	-10007
七八	-10008
常识	-10009
应邀	-10010
悲观	-10011
的李	-10012
重磅	-10013
开庭审理	-10014
▁于	-10015
日趋	-10016
花卉	-10017
风采	-10018
公开发行	-10019
奥林匹克	-10020
花生	-10021
市场和	-10022
不通	-10023
写着	-10024
讲述了	-10025
置换	-10026
▁就在	-10027
目前已经	-10028
关口	-10029
关村	-10030
富士	-10031
不忘	-10032
忽略	-10033
指向	-10034
退税	-10035
▁Ch	-10036
一眼	-10037
专案	-10038
出战	-10039
是可以	-10040
源治理	-10041
一夜	-10042
三项	-10043
米兰	-10044
网购	-10045
花样	-10046
我希望	-10047
万件	-10048
复议	-10049
悄悄	-10050
送上	-10051
实实在在	-10052
占到	-10053
擅长	-10054
美学	-10055
大致	-10056
深层次	-10057
分的	-10058
摄氏	-10059
做什么	-10060
确定的	-10061
路比为	-10062
市县	-10063
悬挂	-10064
十三届	-10065
增设	-10066
整整	-10067
举动	-10068
副校长	-10069
区长	-10070
:「	-10071
为公司	-10072
的保护	-10073
发售	-10074
惊讶	-10075
纯粹	-10076
为首的	-10077
审慎	-10078
经营的	-10079
中国式现代化	-10080
中铁	-10081
捕捉	-10082
没了	-10083
他指出	-10084
萝卜	-10085
蓝图	-10086
在一些	-10087
消费需求	-10088
全村	-10089
该省	-10090
宜昌	-10091
皇帝	-10092
披露的	-10093
人士表示	-10094
▁梁	-10095
国情	-10096
社团	-10097
确定了	-10098
去的	-10099
起草	-10100
无人驾驶	-10101
后市	-10102
强行	-10103
法治化	-10104
真实的	-10105
开放的	-10106
成为中国	-10107
共鸣	-10108
移交	-10109
领跑	-10110
职业技术	-10111
一头	-10112
人居	-10113
格力	-10114
重仓	-10115
责任制	-10116
乐团	-10117
邮轮	-10118
担负	-10119
连队	-10120
金华	-10121
眼中	-10122
每一位	-10123
的张	-10124
脆弱	-10125
月份的	-10126
职业技能	-10127
一颗	-10128
出路	-10129
多为	-10130
西洋	-10131
这套	-10132
经济和	-10133
经济发展的	-10134
佛教	-10135
填写	-10136
紧盯	-10137
钱包	-10138
我们有	-10139
安全感	-10140
的各种	-10141
叙事	-10142
角逐	-10143
预估	-10144
年底前	-10145
白皮书	-10146
厉害	-10147
叫做	-10148
次于	-10149
刚开始	-10150
贷款利率	-10151
年下半年	-10152
休假	-10153
批量	-10154
新规	-10155
悲剧	-10156
聚合	-10157
大幅提升	-10158
党的十八大以来	-10159
完善的	-10160
高等教育	-10161
IV	-10162
▁如	-10163
集训	-10164
空间站	-10165
责任人	-10166
;(	-10167
夜晚	-10168
少女	-10169
泉州	-10170
能让	-10171
核准	-10172
天堂	-10173
法律服务	-10174
贪污	-10175
总收入	-10176
的信心	-10177
万亿美元	-10178
的家	-10179
防卫	-10180
高空	-10181
发展到	-10182
总股本	-10183
所说的	-10184
水土	-10185
依法向你	-10186
此前的	-10187
经营主体	-10188
网站消息	-10189
网讯	-10190
访谈	-10191
人受伤	-10192
故乡	-10193
的股份	-10194
▁据美国	-10195
大力推进	-10196
侦察	-10197
灵感	-10198
平民	-10199
票价	-10200
下一代	-10201
商用	-10202
过高	-10203
个县	-10204
二者	-10205
养猪	-10206
增资	-10207
艰巨	-10208
▁证券	-10209
选取	-10210
万物	-10211
实干	-10212
带给	-10213
皇家	-10214
陈列	-10215
每位	-10216
磷酸	-10217
管网	-10218
志愿军	-10219
定为	-10220
欧冠	-10221
历史性	-10222
创新驱动	-10223
越来越大	-10224
集中隔离	-10225
暗示	-10226
都是在	-10227
全面建成	-10228
斯托	-10229
它们的	-10230
的电话	-10231
中心主任	-10232
对华	-10233
钢厂	-10234
了大量	-10235
参与到	-10236
学习和	-10237
传来	-10238
嘉兴	-10239
大有	-10240
购票	-10241
风云	-10242
马路	-10243
金额为	-10244
可观	-10245
PEC	-10246
本质上	-10247
质量安全	-10248
全家	-10249
all	-10250
则表示	-10251
为用户	-10252
的商业	-10253
分管	-10254
欺诈	-10255
较强的	-10256
并处罚	-10257
冷链	-10258
几家	-10259
拥护	-10260
的年	-10261
自发	-10262
支持下	-10263
底气	-10264
不合理	-10265
原有的	-10266
资源和	-10267
手游	-10268
跨省	-10269
▁六	-10270
有大	-10271
死者	-10272
随便	-10273
大小比为	-10274
目前为止	-10275
镇的	-10276
精神文明	-10277
▁s	-10278
压实	-10279
招商引资	-10280
%(	-10281
讲究	-10282
经验的	-10283
城乡建设	-10284
辣椒	-10285
是一场	-10286
心理健康	-10287
新风	-10288
深处	-10289
解禁	-10290
饮水	-10291
为导向	-10292
工农	-10293
版的	-10294
达尔	-10295
进化	-10296
中指出	-10297
骑行	-10298
办实事	-10299
则在	-10300
反击	-10301
基石	-10302
生死	-10303
告诉我	-10304
跑步	-10305
阶层	-10306
呼吸道	-10307
德尔	-10308
震惊	-10309
村民们	-10310
社会保险	-10311
有待	-10312
是怎么	-10313
熟悉的	-10314
后勤	-10315
废物	-10316
脖子	-10317
享受到	-10318
工人的	-10319
关注的是	-10320
文摘	-10321
ort	-10322
客机	-10323
欲望	-10324
烟草	-10325
居民的	-10326
的交易	-10327
盛会	-10328
严谨	-10329
录像	-10330
里约	-10331
阿尔巴尼亚	-10332
这批	-10333
新势力	-10334
是美国	-10335
可爱	-10336
蕴含	-10337
今天上午	-10338
稀缺	-10339
但她	-10340
房租	-10341
拉升	-10342
计量	-10343
仅次于	-10344
规矩	-10345
村集体	-10346
AP	-10347
前线	-10348
争论	-10349
交管	-10350
侨联	-10351
感恩	-10352
其他国家	-10353
亿人	-10354
诊断为	-10355
媒体记者	-10356
日记	-10357
辩护	-10358
前十	-10359
是一位	-10360
碎片	-10361
等国	-10362
传销	-10363
吉祥	-10364
演奏	-10365
?”“	-10366
建成后	-10367
洗衣	-10368
再一次	-10369
分钟后	-10370
金融科技	-10371
三方	-10372
例外	-10373
可行	-10374
不应该	-10375
于今年	-10376
顺畅	-10377
类产品	-10378
分辨	-10379
扩容	-10380
矿产	-10381
高档	-10382
的意义	-10383
中之	-10384
保税	-10385
深远	-10386
ack	-10387
▁进入	-10388
发表的	-10389
▁实习生	-10390
法律规定	-10391
▁杜	-10392
公安厅	-10393
的行动	-10394
老字号	-10395
▁俄罗斯	-10396
培训机构	-10397
老兵	-10398
迟迟	-10399
催生	-10400
户型	-10401
郑州市	-10402
的伟大	-10403
清水	-10404
痕迹	-10405
经开	-10406
别人的	-10407
发生变化	-10408
一心	-10409
广播电视	-10410
遍布	-10411
不小的	-10412
开展的	-10413
它在	-10414
感冒	-10415
拿起	-10416
年全球	-10417
经纪人	-10418
od	-10419
了我	-10420
各行	-10421
校区	-10422
不再是	-10423
服务等	-10424
地利	-10425
进取	-10426
降准	-10427
平方米的	-10428
ank	-10429
开行	-10430
挪威	-10431
每个月	-10432
更能	-10433
楼的	-10434
新三板	-10435
内政	-10436
骗取	-10437
大熊猫	-10438
小朋友	-10439
少量	-10440
该位	-10441
和投资	-10442
严格执行	-10443
就读	-10444
尽责	-10445
近代	-10446
发展新	-10447
暴涨	-10448
利益的	-10449
强迫	-10450
欺骗	-10451
▁时间	-10452
身体健康	-10453
鲜活	-10454
有一次	-10455
两国关系	-10456
可供	-10457
的他	-10458
▁早在	-10459
▁▲	-10460
回事	-10461
运载	-10462
同花顺	-10463
山上	-10464
温室	-10465
年全年	-10466
新冠疫苗	-10467
加入了	-10468
劳动关系	-10469
国内市场	-10470
买菜	-10471
职权	-10472
亮的	-10473
转入	-10474
为推动	-10475
下周	-10476
样品	-10477
电厂	-10478
议案	-10479
一定是	-10480
▁为什么	-10481
符合条件的	-10482
不像	-10483
▁公开	-10484
组织和	-10485
一万	-10486
涌入	-10487
人员在	-10488
▁题	-10489
一届	-10490
不清楚	-10491
我知道	-10492
显示出	-10493
的科学	-10494
维持在	-10495
但仍	-10496
迅猛	-10497
有必要	-10498
不适	-10499
店里	-10500
揭露	-10501
注册制	-10502
预期的	-10503
半小时	-10504
投标	-10505
体温	-10506
修缮	-10507
学期	-10508
起的	-10509
同一个	-10510
地向	-10511
急诊	-10512
神话	-10513
这起	-10514
选民	-10515
手续费	-10516
但现在	-10517
▁I	-10518
强军	-10519
运维	-10520
已累计	-10521
已进入	-10522
与美国	-10523
艺术的	-10524
医疗保险	-10525
rb	-10526
时有	-10527
模式的	-10528
可以说是	-10529
重大项目	-10530
不乏	-10531
还为	-10532
钢琴	-10533
黑暗	-10534
CR	-10535
」。	-10536
职称	-10537
之为	-10538
人是	-10539
求是	-10540
和生产	-10541
的案件	-10542
横向	-10543
这张	-10544
因涉嫌	-10545
亚非	-10546
颁发	-10547
你在	-10548
逐一	-10549
疾控中心	-10550
人脸	-10551
相连	-10552
亿元和	-10553
追捧	-10554
不妨	-10555
如是	-10556
金价	-10557
出生于	-10558
斗争的	-10559
蛋白质	-10560
征求意见稿	-10561
年华	-10562
新华社记者	-10563
水中	-10564
迈向	-10565
业务收入	-10566
法律援助	-10567
之余	-10568
商铺	-10569
说明书	-10570
当成	-10571
放量	-10572
萨斯	-10573
提升至	-10574
的热情	-10575
入职	-10576
残酷	-10577
激进	-10578
红星	-10579
药店	-10580
转会	-10581
礼品	-10582
重点项目	-10583
og	-10584
压迫	-10585
后台	-10586
对冲	-10587
帐篷	-10588
核武器	-10589
自己是	-10590
证明了	-10591
连日来	-10592
重点领域	-10593
CN	-10594
平常	-10595
麦克	-10596
的新能源	-10597
相差	-10598
素材	-10599
当年的	-10600
日举行	-10601
师资	-10602
%),	-10603
大学教授	-10604
邻里	-10605
怀孕	-10606
根源	-10607
的应用	-10608
基层治理	-10609
降本	-10610
南沙	-10611
文体	-10612
盛宴	-10613
东南部	-10614
明确提出	-10615
挑衅	-10616
收于	-10617
男生	-10618
联防	-10619
▁行情	-10620
同时也是	-10621
国营	-10622
处处长	-10623
保罗	-10624
激增	-10625
跌至	-10626
婴幼儿	-10627
吸毒	-10628
四处	-10629
船只	-10630
三名	-10631
大海	-10632
账款	-10633
党委副书记	-10634
缺点	-10635
送给	-10636
分支	-10637
副总	-10638
福彩	-10639
管线	-10640
实施了	-10641
的报道	-10642
向东	-10643
秸秆	-10644
PMI	-10645
利润率	-10646
招牌	-10647
迁移	-10648
迫使	-10649
代表性	-10650
净买入	-10651
家庭教育	-10652
三轮	-10653
你要	-10654
看到的	-10655
之风	-10656
勘探	-10657
吃的	-10658
无一	-10659
高性能	-10660
报刊	-10661
pct	-10662
▁声明	-10663
▁中新网北京	-10664
江湖	-10665
Sh	-10666
召集	-10667
屏障	-10668
分布式	-10669
精神和	-10670
市场价格	-10671
东山	-10672
入局	-10673
▁另据	-10674
为主体	-10675
的数量	-10676
密切接触者	-10677
ci	-10678
应有	-10679
用手	-10680
但随着	-10681
以及其他	-10682
发展中	-10683
司法局	-10684
或者是	-10685
工作和	-10686
全国人大代表	-10687
达克	-10688
露出	-10689
创新药	-10690
很长	-10691
打着	-10692
为了让	-10693
内饰	-10694
一等奖	-10695
被视为	-10696
三区	-10697
场次	-10698
布斯	-10699
我相信	-10700
还是在	-10701
绍兴	-10702
的无	-10703
踏实	-10704
美国人	-10705
种植面积	-10706
封建	-10707
屠杀	-10708
改良	-10709
明珠	-10710
关键技术	-10711
规模以上	-10712
的工作人员	-10713
施策	-10714
赞扬	-10715
教育厅	-10716
不利于	-10717
西安市	-10718
感受到了	-10719
人类命运共同体	-10720
之年	-10721
口感	-10722
的决心	-10723
投入使用	-10724
ast	-10725
与国际	-10726
证券公司	-10727
刹车	-10728
国王	-10729
足迹	-10730
为他	-10731
义乌	-10732
辆车	-10733
但目前	-10734
军委	-10735
ill	-10736
等项目	-10737
仓位	-10738
先是	-10739
尊严	-10740
智利	-10741
评委	-10742
偏弱	-10743
取证	-10744
见了	-10745
的网络	-10746
消费市场	-10747
专班	-10748
失联	-10749
约谈	-10750
但对于	-10751
死亡病例	-10752
带到	-10753
愉快	-10754
净亏损	-10755
警戒	-10756
投行	-10757
数码	-10758
调侃	-10759
严格按照	-10760
概括	-10761
渤海	-10762
郊区	-10763
净资产	-10764
分享了	-10765
启动了	-10766
是目前	-10767
采取措施	-10768
亚冠	-10769
特约	-10770
行走	-10771
营业部	-10772
党校	-10773
生理	-10774
上前	-10775
通话	-10776
我们需要	-10777
人民群众的	-10778
日渐	-10779
队员们	-10780
▁彭	-10781
疏散	-10782
选项	-10783
之城	-10784
眼科	-10785
▁热点	-10786
万千瓦	-10787
使用了	-10788
功能的	-10789
我们党	-10790
新闻记者	-10791
买到	-10792
身高	-10793
万元人民币	-10794
奠定	-10795
摩擦	-10796
AS	-10797
暴发	-10798
榜首	-10799
的人工	-10800
竞争力的	-10801
年终	-10802
汽车行业	-10803
围观	-10804
高山	-10805
和安全	-10806
丢失	-10807
年限	-10808
曾是	-10809
录制	-10810
这儿	-10811
敦促	-10812
比起	-10813
第二批	-10814
▁据中国	-10815
听了	-10816
之心	-10817
他从	-10818
帽子	-10819
中国与	-10820
日晚上	-10821
约翰逊	-10822
阿尔及利亚	-10823
扬州	-10824
枪支	-10825
原则上	-10826
才知道	-10827
河西	-10828
科室	-10829
今天下午	-10830
就已	-10831
公款	-10832
开的	-10833
服务于	-10834
分会	-10835
广泛关注	-10836
伦理	-10837
查阅	-10838
公共场所	-10839
剧烈	-10840
服务贸易	-10841
主要集中在	-10842
供货	-10843
该剧	-10844
体力	-10845
脱颖	-10846
法定代表	-10847
出一个	-10848
航天员	-10849
聚会	-10850
的持续	-10851
▁截至目前	-10852
ne	-10853
ry	-10854
之以	-10855
观摩	-10856
参观了	-10857
他们是	-10858
发行人	-10859
日在北京	-10860
西方国家	-10861
生物多样性	-10862
力求	-10863
税率	-10864
紧缩	-10865
诉前	-10866
重型	-10867
伤者	-10868
助手	-10869
福祉	-10870
物业服务	-10871
和我	-10872
理赔	-10873
各单位	-10874
如果是	-10875
喜悦	-10876
混凝	-10877
还可	-10878
Tok	-10879
调查发现	-10880
相关负责人介绍	-10881
分期	-10882
完备	-10883
困难的	-10884
总面积	-10885
估算	-10886
私营	-10887
优质的	-10888
监督检查	-10889
媒介	-10890
预定	-10891
家庭的	-10892
有些人	-10893
无所	-10894
昌平	-10895
市场监管局	-10896
木材	-10897
汲取	-10898
炸弹	-10899
祖国的	-10900
詹姆斯	-10901
的最新	-10902
受疫情影响	-10903
行列	-10904
观影	-10905
重整	-10906
帮助企业	-10907
沉默	-10908
▁国务院	-10909
存在的问题	-10910
日到	-10911
温泉	-10912
中金	-10913
笔记本	-10914
受到影响	-10915
传导	-10916
错过	-10917
调查中	-10918
外交部长	-10919
:[	-10920
拖累	-10921
被打	-10922
运力	-10923
驱逐	-10924
对企业	-10925
而来的	-10926
ON	-10927
不禁	-10928
点点	-10929
▁法院	-10930
西德	-10931
工程院	-10932
职人员	-10933
ating	-10934
组六	-10935
有风险	-10936
结构调整	-10937
康养	-10938
开除	-10939
暂行	-10940
绿色通道	-10941
有关负责人	-10942
尽早	-10943
意的	-10944
退还	-10945
我还	-10946
投保	-10947
探访	-10948
稳中	-10949
ews	-10950
涉及到	-10951
混凝土	-10952
▁谢	-10953
同业	-10954
后备	-10955
窗户	-10956
资源配置	-10957
大火	-10958
看重	-10959
区政府	-10960
当前的	-10961
保管	-10962
果断	-10963
越是	-10964
加密货币	-10965
的真实	-10966
理工大学	-10967
似的	-10968
口气	-10969
异议	-10970
这件	-10971
问询	-10972
医学院	-10973
大关	-10974
科长	-10975
出来了	-10976
咳嗽	-10977
▁单	-10978
售票	-10979
但他们	-10980
成本的	-10981
环境和	-10982
辅警	-10983
上方	-10984
前海	-10985
红的	-10986
成品油	-10987
带领下	-10988
看不到	-10989
书的	-10990
八一	-10991
双碳	-10992
同盟	-10993
放射	-10994
款车型	-10995
一身	-10996
备忘	-10997
带队	-10998
的文章	-10999
都知道	-11000
英超	-11001
迈进	-11002
▁此	-11003
九十	-11004
畅销	-11005
沈阳市	-11006
一些人	-11007
也比较	-11008
感觉到	-11009
▁更	-11010
手册	-11011
拖拉	-11012
辖市	-11013
不稳定	-11014
生命的	-11015
同比增速	-11016
ure	-11017
▁上周	-11018
可能在	-11019
掌握了	-11020
不远	-11021
势必	-11022
却没有	-11023
最强	-11024
村镇	-11025
碰到	-11026
而被	-11027
微信群	-11028
这些年	-11029
顶层设计	-11030
溺水	-11031
菲特	-11032
党风	-11033
数为	-11034
也无法	-11035
的费用	-11036
吃了	-11037
融媒体	-11038
中华文化	-11039
借此	-11040
正向	-11041
老虎	-11042
音频	-11043
都不能	-11044
到场	-11045
天后	-11046
容忍	-11047
。」「	-11048
的措施	-11049
REIT	-11050
▁巴	-11051
局限	-11052
建筑物	-11053
借口	-11054
摆放	-11055
洗手	-11056
工商户	-11057
的一个重要	-11058
回避	-11059
大庆	-11060
就必须	-11061
个交易日	-11062
建设工程	-11063
经济运行	-11064
滞后	-11065
圣诞	-11066
意料	-11067
就不会	-11068
丝路	-11069
本着	-11070
热水	-11071
都说	-11072
备忘录	-11073
的报告	-11074
的认识	-11075
ex	-11076
一幅	-11077
地标	-11078
水准	-11079
辖区内	-11080
前途	-11081
把手	-11082
的经历	-11083
小时候	-11084
多重	-11085
广发	-11086
苏丹	-11087
试剂	-11088
对口	-11089
应在	-11090
至上	-11091
占公司	-11092
田园	-11093
集约	-11094
丰富多彩	-11095
▁·	-11096
按摩	-11097
▁同样	-11098
小鹏汽车	-11099
实控	-11100
整齐	-11101
智力	-11102
▁”	-11103
▁德	-11104
暖心	-11105
水务	-11106
能为	-11107
关停	-11108
收视	-11109
身亡	-11110
一会儿	-11111
驾驶人	-11112
医学观察	-11113
▁请	-11114
低保	-11115
牧民	-11116
留给	-11117
总市值	-11118
命名	-11119
骗子	-11120
光辉	-11121
轻微	-11122
决赛中	-11123
忙着	-11124
的金	-11125
纷纷表示	-11126
失业率	-11127
幽默	-11128
胡同	-11129
文化艺术	-11130
▁龙	-11131
品尝	-11132
就将	-11133
的观点	-11134
她和	-11135
应急响应	-11136
之力	-11137
ant	-11138
团队的	-11139
等单位	-11140
村落	-11141
以免	-11142
讲好	-11143
你可以	-11144
集团董事长	-11145
公主	-11146
栽培	-11147
水平和	-11148
具有重要意义	-11149
常住	-11150
悠久	-11151
乐队	-11152
原先	-11153
两个人	-11154
了下来	-11155
不允许	-11156
更多地	-11157
的心态	-11158
新低	-11159
视频号	-11160
专人	-11161
削弱	-11162
封装	-11163
的手机	-11164
希尔	-11165
俄乌冲突	-11166
情况进行	-11167
负面影响	-11168
等候	-11169
诱惑	-11170
陷阱	-11171
散户	-11172
完成的	-11173
升高	-11174
春耕	-11175
烟火	-11176
体育馆	-11177
各样的	-11178
蓬勃发展	-11179
小小	-11180
掘金	-11181
村级	-11182
做一个	-11183
核心竞争力	-11184
的全球	-11185
自公告之日起	-11186
大厂	-11187
就曾	-11188
最长	-11189
院所	-11190
年年底	-11191
风波	-11192
鲁能	-11193
增长点	-11194
一直没有	-11195
老龄化	-11196
型号	-11197
小额	-11198
艾滋	-11199
的学习	-11200
初级	-11201
来得	-11202
江县	-11203
部委	-11204
年时间	-11205
管理系统	-11206
侧面	-11207
娃娃	-11208
邯郸	-11209
的现实	-11210
的主要原因	-11211
综合体	-11212
座位	-11213
植入	-11214
的受访者	-11215
顺丰	-11216
喜欢的	-11217
酒业	-11218
ini	-11219
又一个	-11220
小组赛	-11221
前区	-11222
宏伟	-11223
寒冷	-11224
▁在此	-11225
专栏	-11226
分析称	-11227
各行各	-11228
▁中共	-11229
▁会上	-11230
典范	-11231
环境中	-11232
ie	-11233
共治	-11234
坏了	-11235
排列三	-11236
诉源治理	-11237
不胜	-11238
也未	-11239
仍需	-11240
少的	-11241
低收入	-11242
都不会	-11243
尽力	-11244
转身	-11245
共产党的	-11246
实惠	-11247
切身	-11248
安县	-11249
安慰	-11250
纾困	-11251
旗舰店	-11252
违反了	-11253
财产安全	-11254
战的	-11255
救济	-11256
占有率	-11257
主要用于	-11258
压制	-11259
安理会	-11260
亲身	-11261
的业绩	-11262
国家战略	-11263
天文	-11264
在欧洲	-11265
的产业	-11266
从根本上	-11267
反恐	-11268
禁令	-11269
等新	-11270
奇数	-11271
巅峰	-11272
我家	-11273
厂长	-11274
火山	-11275
造福	-11276
门外	-11277
留下的	-11278
冲锋	-11279
年我国	-11280
的数字	-11281
既往	-11282
登场	-11283
毫无疑	-11284
在全	-11285
闵行	-11286
从今年	-11287
首先是	-11288
公告显示	-11289
刚果	-11290
加油站	-11291
哈萨克斯坦	-11292
建华	-11293
知乎	-11294
矫正	-11295
逃避	-11296
持续增长	-11297
澄清	-11298
群书	-11299
有能力	-11300
诺贝尔	-11301
外包	-11302
毛利	-11303
剧集	-11304
遴选	-11305
降雪	-11306
类型的	-11307
材质	-11308
让孩子	-11309
支持力度	-11310
的宣传	-11311
这对于	-11312
个体工商户	-11313
索尼	-11314
错了	-11315
向中国	-11316
员工的	-11317
公用	-11318
发声	-11319
二千	-11320
江山	-11321
众议院	-11322
你说	-11323
外国人	-11324
资源优势	-11325
io	-11326
分区	-11327
误导	-11328
up	-11329
斯塔	-11330
工作站	-11331
)(	-11332
▁h	-11333
五粮	-11334
地为	-11335
抓捕	-11336
抗美	-11337
等着	-11338
话说	-11339
通俗	-11340
会导致	-11341
宴会	-11342
克拉	-11343
班组	-11344
东方甄选	-11345
消费者对	-11346
中小微企业	-11347
出不	-11348
扰乱	-11349
第三届	-11350
BO	-11351
我现在	-11352
男友	-11353
日中午	-11354
网报道	-11355
记者李	-11356
创新能力	-11357
委书记	-11358
扎实推进	-11359
家政	-11360
直选	-11361
自救	-11362
门户	-11363
多样的	-11364
婆婆	-11365
官僚	-11366
于此	-11367
阿联酋	-11368
获胜	-11369
)》,	-11370
村里的	-11371
研究成果	-11372
田博	-11373
莲花	-11374
自主研发	-11375
共创	-11376
主编	-11377
德拉	-11378
潍坊	-11379
一杯	-11380
波音	-11381
双十一	-11382
记者张	-11383
停火	-11384
冲动	-11385
只见	-11386
简历	-11387
视线	-11388
东北部	-11389
在海外	-11390
的军事	-11391
一所	-11392
在上	-11393
薪资	-11394
陈述	-11395
面板	-11396
不具备	-11397
-----	-11398
的路	-11399
事件的	-11400
更需要	-11401
第二轮	-11402
同比上涨	-11403
广大群众	-11404
中华优秀传统文化	-11405
一遍	-11406
找准	-11407
有余	-11408
来访	-11409
万多元	-11410
很强的	-11411
通货膨胀	-11412
交会	-11413
的一条	-11414
▁模拟	-11415
几年的	-11416
贫困人口	-11417
不说	-11418
到大	-11419
媳妇	-11420
自然灾害	-11421
人情	-11422
夺取	-11423
耳朵	-11424
LPR	-11425
几乎没有	-11426
刑事拘留	-11427
追逐	-11428
对着	-11429
被问	-11430
该区	-11431
谋求	-11432
雷雨	-11433
法西斯	-11434
爱尔兰	-11435
的存在	-11436
年第	-11437
是一次	-11438
是没有	-11439
操控	-11440
和相关	-11441
内生	-11442
欧元区	-11443
美丽的	-11444
不慎	-11445
六百	-11446
分发	-11447
多处	-11448
二十四	-11449
从严治	-11450
有关方面	-11451
熟练	-11452
副教授	-11453
统计数据显示	-11454
\_	-11455
型的	-11456
犯罪的	-11457
统计显示	-11458
ff	-11459
身处	-11460
▁世界	-11461
世卫	-11462
屋顶	-11463
摧毁	-11464
源自	-11465
但是在	-11466
养护	-11467
升值	-11468
安检	-11469
电价	-11470
青岛市	-11471
应急预案	-11472
记者采访时	-11473
对策	-11474
球的	-11475
得不到	-11476
我们已经	-11477
EV	-11478
家风	-11479
江淮	-11480
集采	-11481
人类的	-11482
的商品	-11483
都已经	-11484
出演	-11485
处方	-11486
搭档	-11487
来回	-11488
航行	-11489
队和	-11490
和产品	-11491
伯格	-11492
导致了	-11493
离开了	-11494
企事业单位	-11495
暴雪	-11496
维尔	-11497
守住	-11498
拦截	-11499
换电	-11500
也是一个	-11501
毫无疑问	-11502
实处	-11503
族自治州	-11504
一根	-11505
笑了	-11506
要点	-11507
摸索	-11508
进程中	-11509
记者王	-11510
丽的	-11511
起初	-11512
里斯	-11513
ear	-11514
充分的	-11515
公开赛	-11516
记者采访时表示	-11517
反响	-11518
经营管理	-11519
核心价值观	-11520
减灾	-11521
桂园	-11522
轻型	-11523
与社会	-11524
生态文明建设	-11525
忘了	-11526
的还有	-11527
智能网联	-11528
主机	-11529
多亩	-11530
感悟	-11531
月在	-11532
连胜	-11533
黄浦	-11534
停留在	-11535
可能的	-11536
卡拉	-11537
口袋	-11538
常州	-11539
眼泪	-11540
虹桥	-11541
便利店	-11542
侨胞	-11543
日后	-11544
目标的	-11545
寻常	-11546
据说	-11547
收官	-11548
有人说	-11549
对记者说	-11550
OpenAI	-11551
交响	-11552
市盈率	-11553
国际市场	-11554
富豪	-11555
绽放	-11556
钻石	-11557
保证了	-11558
信息系统	-11559
是否存在	-11560
现依法向你	-11561
后悔	-11562
果园	-11563
礼包	-11564
而又	-11565
这些都是	-11566
------	-11567
密克	-11568
羊肉	-11569
一对一	-11570
等领域的	-11571
购物中心	-11572
之称	-11573
装配	-11574
记者问	-11575
竞争优势	-11576
他把	-11577
会让	-11578
对美国	-11579
转移到	-11580
都非常	-11581
外围	-11582
赔付	-11583
提质增效	-11584
国家发改委	-11585
带动了	-11586
见证了	-11587
晓明	-11588
元首	-11589
的实际	-11590
唐山	-11591
大了	-11592
法学	-11593
老乡	-11594
的人口	-11595
▁资金流向	-11596
些年	-11597
简介	-11598
或其他	-11599
城乡居民	-11600
奇瑞	-11601
符号	-11602
虚构	-11603
vip	-11604
一架	-11605
歌唱	-11606
诗词	-11607
成为全球	-11608
骑手	-11609
经验和	-11610
IF	-11611
五月	-11612
把他	-11613
中国梦	-11614
作品的	-11615
微生物	-11616
▁正	-11617
法律的	-11618
老师的	-11619
中国移动	-11620
任何一个	-11621
减速	-11622
分布在	-11623
伊利	-11624
测评	-11625
农林	-11626
回合	-11627
曾经的	-11628
我们现在	-11629
新春	-11630
监事	-11631
较前	-11632
还有一些	-11633
低调	-11634
出厂	-11635
录得	-11636
疫情的	-11637
破获	-11638
平台和	-11639
一向	-11640
群岛	-11641
外交部发言人	-11642
伴有	-11643
日中	-11644
一句话	-11645
出色的	-11646
即便是	-11647
提供商	-11648
消防员	-11649
变得更加	-11650
征信	-11651
招呼	-11652
进场	-11653
防洪	-11654
案件中	-11655
版权声明	-11656
好在	-11657
第一家	-11658
给出的	-11659
认定为	-11660
理想汽车	-11661
可为	-11662
▁当时	-11663
的汽车	-11664
第一大	-11665
规划和	-11666
项目中	-11667
不着	-11668
▁浙江	-11669
科夫	-11670
非凡	-11671
的最高	-11672
高额	-11673
一大批	-11674
代表着	-11675
气象局	-11676
道路上	-11677
外籍	-11678
农业农村部	-11679
大声	-11680
日照	-11681
铁道	-11682
技术研发	-11683
新品种	-11684
和他的	-11685
消费电子	-11686
上任	-11687
下列	-11688
可口	-11689
的游戏	-11690
紧紧围绕	-11691
年前三季度	-11692
停牌	-11693
急剧	-11694
十二届	-11695
次日	-11696
者在	-11697
轻轻	-11698
▁相关	-11699
另一位	-11700
只个股	-11701
地将	-11702
练兵	-11703
美金	-11704
牛市	-11705
▁客户端	-11706
绿水青山	-11707
和社会保障	-11708
汇集	-11709
退款	-11710
黄某	-11711
国家和地区的	-11712
保洁	-11713
境界	-11714
天花	-11715
▁于是	-11716
全国的	-11717
碧桂园	-11718
Ar	-11719
剧目	-11720
手上	-11721
结对	-11722
藏品	-11723
▁原创	-11724
-------	-11725
上旬	-11726
被判	-11727
普通人	-11728
部门和	-11729
录音	-11730
难忘	-11731
最后一个	-11732
灿烂	-11733
不只是	-11734
两年的	-11735
双方的	-11736
如果说	-11737
一类	-11738
南通	-11739
是其	-11740
知的	-11741
约旦	-11742
体育场	-11743
排行榜	-11744
▁t	-11745
早餐	-11746
纳斯达克	-11747
保护和	-11748
▁平	-11749
保有	-11750
功效	-11751
机车	-11752
秉承	-11753
据报道	-11754
普通的	-11755
等原因	-11756
鲍威尔	-11757
行政机关	-11758
打仗	-11759
泉水	-11760
都已	-11761
亟待	-11762
ice	-11763
在市场	-11764
奥委会	-11765
购买了	-11766
ight	-11767
应急管理	-11768
智能驾驶	-11769
上岗	-11770
php	-11771
经历过	-11772
旅游景区	-11773
一层	-11774
他曾	-11775
发货	-11776
梯队	-11777
▁现场	-11778
放置	-11779
查找	-11780
研究会	-11781
习近平总书记在	-11782
农商	-11783
几名	-11784
地里	-11785
遗体	-11786
风险的	-11787
依规	-11788
军官	-11789
地和	-11790
放映	-11791
油菜	-11792
赶上	-11793
一起来	-11794
在他的	-11795
赶到现场	-11796
下水	-11797
亲友	-11798
▁当日	-11799
的车辆	-11800
归还	-11801
尼日	-11802
医疗队	-11803
的一面	-11804
三中全会	-11805
包围	-11806
年是	-11807
搜寻	-11808
跟我	-11809
跻身	-11810
回到了	-11811
展开了	-11812
等一批	-11813
节目中	-11814
▁最	-11815
可怕	-11816
补齐	-11817
较差	-11818
五粮液	-11819
恢复正常	-11820
重点工作	-11821
标语	-11822
转变为	-11823
记者了解到	-11824
一篇	-11825
之情	-11826
前方	-11827
早盘	-11828
债权人	-11829
聚力	-11830
让自己	-11831
▁除此之外	-11832
偶数	-11833
而后	-11834
不断的	-11835
服务站	-11836
特别行政区	-11837
/)	-11838
通讯社	-11839
指挥中心	-11840
科技股份有限公司	-11841
上台	-11842
变形	-11843
融创	-11844
记住	-11845
中立	-11846
达成协议	-11847
一小	-11848
大额	-11849
源源	-11850
犹如	-11851
中农	-11852
任意	-11853
施肥	-11854
不排除	-11855
所有制	-11856
传统文化的	-11857
画卷	-11858
是世界	-11859
经营性	-11860
III	-11861
召开了	-11862
提到的	-11863
纵横	-11864
说着	-11865
才发现	-11866
国家标准	-11867
八年	-11868
肩负	-11869
隆重	-11870
首尔	-11871
一次次	-11872
公平正义	-11873
▁全	-11874
习俗	-11875
巨人	-11876
献血	-11877
知晓	-11878
而生	-11879
博物院	-11880
大会堂	-11881
的高端	-11882
自来水	-11883
高速增长	-11884
Rating	-11885
停滞	-11886
同质	-11887
eep	-11888
面子	-11889
中高端	-11890
也因此	-11891
路透社	-11892
▁开	-11893
可信	-11894
放假	-11895
活动现场	-11896
ikTok	-11897
▁董	-11898
办的	-11899
器的	-11900
就行	-11901
很久	-11902
要比	-11903
人员和	-11904
二级市场	-11905
公共文化	-11906
经济合作	-11907
▁业内人士	-11908
分解	-11909
刊登	-11910
唱歌	-11911
病虫	-11912
收盘价	-11913
就需要	-11914
服务质量	-11915
值守	-11916
出自	-11917
请问	-11918
并处罚金	-11919
了新	-11920
神州	-11921
紧缺	-11922
货币基金	-11923
phtml	-11924
上市公司的	-11925
名将	-11926
张玉	-11927
的原	-11928
筹划	-11929
编程	-11930
密克戎	-11931
星巴克	-11932
全面建设	-11933
)”	-11934
医美	-11935
单身	-11936
%)。	-11937
vIR	-11938
▁自选股	-11939
奥密克戎	-11940
▁模拟交易	-11941
▁热点栏目	-11942
▁行情中心	-11943
Newest	-11944
Fi	-11945
体操	-11946
夜里	-11947
泰山	-11948
登山	-11949
直达	-11950
的不同	-11951
研究院院长	-11952
王先生	-11953
关乎	-11954
三月	-11955
大号	-11956
餐桌	-11957
处长	-11958
好人	-11959
对立	-11960
李娜	-11961
朝鲜人民	-11962
违纪违法	-11963
奔跑	-11964
顺序	-11965
保持了	-11966
近距离	-11967
伯特	-11968
您的	-11969
拿地	-11970
出席会议	-11971
km	-11972
滑坡	-11973
▁韩国	-11974
信证券	-11975
标志性	-11976
LO	-11977
尾声	-11978
日以来	-11979
赤字	-11980
万公里	-11981
大幅增长	-11982
热烈欢迎	-11983
已然	-11984
行业中	-11985
中国文化	-11986
减肥	-11987
打造成	-11988
核电站	-11989
维生素	-11990
学业	-11991
唯有	-11992
高龄	-11993
充值	-11994
大同	-11995
组装	-11996
远超	-11997
▁例如	-11998
制度和	-11999
假如	-12000
最低气温	-12001
上场	-12002
赵某	-12003
剩下的	-12004
人选	-12005
共生	-12006
率和	-12007
设法	-12008
参议院	-12009
委员会委员	-12010
纯电	-12011
通往	-12012
除非	-12013
在她	-12014
罪犯	-12015
贩卖	-12016
非常重要	-12017
小于	-12018
柔性	-12019
格里	-12020
编号	-12021
》),	-12022
给孩子	-12023
加强了	-12024
区域性	-12025
消费者权益	-12026
产学	-12027
八项	-12028
珠江	-12029
饮酒	-12030
但没有	-12031
前不久	-12032
万套	-12033
代谢	-12034
全是	-12035
的热	-12036
稳步推进	-12037
觉得自己	-12038
一倍	-12039
北汽	-12040
尾数	-12041
群体的	-12042
又将	-12043
杀害	-12044
狂欢	-12045
疗法	-12046
领导和	-12047
博览群书	-12048
生产生活	-12049
校友	-12050
汉字	-12051
海运	-12052
马力	-12053
并不会	-12054
读书报	-12055
福利来了	-12056
az	-12057
安区	-12058
▁据统计	-12059
研发费用	-12060
维和	-12061
的一半	-12062
动了	-12063
无形	-12064
演变	-12065
投入到	-12066
自然的	-12067
部主任	-12068
中小学生	-12069
十大金股	-12070
占了	-12071
大通	-12072
政府在	-12073
是全国	-12074
正在进一步	-12075
打进	-12076
等重要	-12077
主题活动	-12078
三点	-12079
称之为	-12080
兑付	-12081
彼得	-12082
想想	-12083
执导	-12084
意识形态	-12085
三地	-12086
▁台湾	-12087
上海的	-12088
抬头	-12089
万欧元	-12090
关系到	-12091
身边的	-12092
中国国际	-12093
长效机制	-12094
护肤	-12095
节前	-12096
人口的	-12097
南山	-12098
启示	-12099
尼克	-12100
看过	-12101
他强调	-12102
农民的	-12103
实现的	-12104
成长为	-12105
极大地	-12106
股东的净利润	-12107
ly	-12108
摄入	-12109
春风	-12110
多小时	-12111
有关的	-12112
直辖市	-12113
书摘	-12114
奖牌	-12115
共同的	-12116
一组	-12117
团员	-12118
望着	-12119
立项	-12120
赞赏	-12121
造就	-12122
问题和	-12123
脱颖而出	-12124
市场监督管理局	-12125
响起	-12126
悄然	-12127
索赔	-12128
繁殖	-12129
成指	-12130
无偿	-12131
果然	-12132
船员	-12133
经贸合作	-12134
派出所民警	-12135
▁叶	-12136
动的	-12137
开店	-12138
打得	-12139
芬兰	-12140
到今年	-12141
阻力	-12142
高了	-12143
低端	-12144
在本	-12145
直属	-12146
最重要	-12147
启动仪式	-12148
不做	-12149
医用	-12150
缩水	-12151
更多的是	-12152
社会科学院	-12153
不尽	-12154
勃勃	-12155
盒马	-12156
年增长	-12157
亿万	-12158
当你	-12159
发行的	-12160
和实践	-12161
工业生产	-12162
中华读书报	-12163
举例	-12164
引来	-12165
抗体	-12166
海尔	-12167
主义和	-12168
反腐败	-12169
就得	-12170
而成	-12171
身后	-12172
历史同期	-12173
帮助他们	-12174
习近平同志	-12175
Co	-12176
降到	-12177
难关	-12178
比较大	-12179
等各种	-12180
集中的	-12181
时报记者	-12182
米尔	-12183
可以让	-12184
▁冯	-12185
不断增加	-12186
事儿	-12187
人格	-12188
就餐	-12189
手持	-12190
灾后	-12191
专案组	-12192
▁App	-12193
投资者的	-12194
中亚	-12195
中非	-12196
斩获	-12197
日程	-12198
不少于	-12199
电动自行车	-12200
交织	-12201
告诉我们	-12202
研究所所长	-12203
▁法国	-12204
战斗机	-12205
拉丁美洲	-12206
这些人	-12207
妇女儿童	-12208
▁风险提示	-12209
中南	-12210
田博群	-12211
的父亲	-12212
不息	-12213
惩戒	-12214
逃离	-12215
的场景	-12216
职工的	-12217
▁上海市	-12218
全民健身	-12219
一键	-12220
共振	-12221
出入	-12222
埃尔	-12223
威廉	-12224
女士说	-12225
SP	-12226
两轮	-12227
序幕	-12228
时速	-12229
没法	-12230
人员伤亡	-12231
用自己的	-12232
联合创始人	-12233
存货	-12234
消极	-12235
岗位上	-12236
坚实基础	-12237
里有	-12238
隐瞒	-12239
SaaS	-12240
动机	-12241
也已经	-12242
音乐节	-12243
在广州	-12244
的人数	-12245
的新冠	-12246
封控	-12247
的因素	-12248
子弹	-12249
转折	-12250
饱满	-12251
了一项	-12252
民族的	-12253
等诸多	-12254
做起	-12255
点亮	-12256
盲盒	-12257
三季报	-12258
干部和	-12259
越南南方	-12260
也门	-12261
出击	-12262
十个	-12263
强力	-12264
保护法	-12265
全面的	-12266
季节性	-12267
热烈的	-12268
不可避免	-12269
复旦大学	-12270
众所	-12271
展演	-12272
搜集	-12273
qu	-12274
优选	-12275
她是	-12276
掌控	-12277
星星	-12278
议事	-12279
下一页	-12280
张家口	-12281
报表	-12282
车子	-12283
不平衡	-12284
会计师	-12285
文摘报	-12286
篇小说	-12287
中信证券	-12288
已从	-12289
体内	-12290
无缝	-12291
泄漏	-12292
马云	-12293
著作权	-12294
欧阳	-12295
这边	-12296
](#	-12297
一家人	-12298
旧金山	-12299
gmrb	-12300
把自己的	-12301
剧组	-12302
急性	-12303
想过	-12304
月度	-12305
地质灾害	-12306
北京冬奥会	-12307
楼宇	-12308
穿梭	-12309
的大力	-12310
个案	-12311
交融	-12312
孕育	-12313
可以从	-12314
示范基地	-12315
食品药品	-12316
云端	-12317
传言	-12318
黄牛	-12319
不正当	-12320
饮用水	-12321
首席经济学家	-12322
明明	-12323
的四	-12324
的第	-12325
走弱	-12326
防务	-12327
有所下降	-12328
仪表	-12329
商机	-12330
后发现	-12331
北极	-12332
安全保障	-12333
骚扰	-12334
主义者	-12335
的居民	-12336
社交平台	-12337
岁时	-12338
液化	-12339
过大	-12340
几十年	-12341
创业板指	-12342
市中级人民法院	-12343
扣押	-12344
特派	-12345
斯拉夫	-12346
第一名	-12347
落下	-12348
艺术品	-12349
调整后	-12350
实事求是	-12351
达成一致	-12352
但它	-12353
原体	-12354
片的	-12355
他与	-12356
独角	-12357
取暖	-12358
越高	-12359
习主席	-12360
公司已	-12361
占据了	-12362
技能人才	-12363
在那	-12364
技术与	-12365
的患者	-12366
全国政协	-12367
”》	-12368
▁长	-12369
接地	-12370
双方在	-12371
等进行	-12372
小康社会	-12373
之间的关系	-12374
ML	-12375
露天	-12376
中关村	-12377
在自己	-12378
地区和	-12379
或者说	-12380
拖拉机	-12381
新冠肺炎确诊病例	-12382
因其	-12383
最小	-12384
发挥作用	-12385
政府工作报告	-12386
CI	-12387
乌兰	-12388
了好	-12389
你看	-12390
失控	-12391
权和	-12392
▁中华	-12393
服务机构	-12394
基调	-12395
美景	-12396
上也	-12397
这首	-12398
为抓手	-12399
传授	-12400
委内	-12401
或缺	-12402
抢修	-12403
晋升	-12404
了一套	-12405
分左右	-12406
不敌	-12407
二号	-12408
伤病	-12409
前置	-12410
斯克	-12411
眼神	-12412
还对	-12413
文化大	-12414
他会	-12415
演示	-12416
走路	-12417
必须在	-12418
无障碍	-12419
AN	-12420
廊坊	-12421
不仅有	-12422
卫生部	-12423
可实现	-12424
自媒体	-12425
古镇	-12426
可用	-12427
穿戴	-12428
购买的	-12429
范围内的	-12430
中年	-12431
单打	-12432
our	-12433
流行病	-12434
职业技术学院	-12435
如有	-12436
体现出	-12437
新兴市场	-12438
亿的	-12439
展品	-12440
每当	-12441
瑞拉	-12442
顽强	-12443
李先生	-12444
经开区	-12445
之乡	-12446
盘面	-12447
等各类	-12448
俄方	-12449
可比	-12450
打磨	-12451
颜值	-12452
打开了	-12453
汇总	-12454
车位	-12455
生产队	-12456
’。	-12457
后方	-12458
表现为	-12459
两款	-12460
坚信	-12461
流畅	-12462
远洋	-12463
民营经济	-12464
在不	-12465
民进	-12466
热衷	-12467
迄今为止	-12468
山村	-12469
得住	-12470
编译	-12471
饮品	-12472
首钢	-12473
的制度	-12474
较量	-12475
做出的	-12476
构成了	-12477
分开	-12478
形状	-12479
简易	-12480
起义	-12481
阐释	-12482
的平均	-12483
的情形	-12484
美丽乡村	-12485
进一步优化	-12486
中也	-12487
稍微	-12488
野外	-12489
齐聚	-12490
并要求	-12491
的样子	-12492
而对于	-12493
干劲	-12494
性强	-12495
穿过	-12496
老化	-12497
驾驶证	-12498
刑事案件	-12499
感激	-12500
大乐透	-12501
文化建设	-12502
卡尔	-12503
命题	-12504
替补	-12505
力量的	-12506
服务能力	-12507
▁。	-12508
名下	-12509
河湖	-12510
良种	-12511
身上的	-12512
相比之下	-12513
租车	-12514
给予了	-12515
▁f	-12516
味的	-12517
摄氏度	-12518
的质量	-12519
科研人员	-12520
商事	-12521
拐点	-12522
在场	-12523
工序	-12524
赞成	-12525
所带来的	-12526
烹饪	-12527
毕业于	-12528
的理解	-12529
广大市民	-12530
出示	-12531
印证	-12532
年多	-12533
调试	-12534
高频	-12535
用户体验	-12536
古籍	-12537
子和	-12538
应付	-12539
问卷	-12540
以及对	-12541
即日起	-12542
委内瑞拉	-12543
委员会主任	-12544
杰出	-12545
球星	-12546
其次是	-12547
提供更多	-12548
特色产业	-12549
职能部门	-12550
和值	-12551
扭亏	-12552
曼谷	-12553
往往是	-12554
经常性	-12555
充裕	-12556
全网	-12557
无缘	-12558
稳固	-12559
调配	-12560
的广告	-12561
夸张	-12562
有钱	-12563
未有	-12564
自立	-12565
不断发展	-12566
房贷利率	-12567
每股收益	-12568
这个时候	-12569
画像	-12570
离岸	-12571
行星	-12572
▁预计	-12573
中药材	-12574
公司股票	-12575
SK	-12576
分手	-12577
枫桥	-12578
火力	-12579
电缆	-12580
程度的	-12581
各国人民	-12582
向世界	-12583
都不是	-12584
干脆	-12585
科教	-12586
长度	-12587
十八届	-12588
变速箱	-12589
引起的	-12590
推动下	-12591
附加值	-12592
全景	-12593
固然	-12594
多头	-12595
悉尼	-12596
直径	-12597
端午	-12598
身着	-12599
选址	-12600
社会化	-12601
卖给	-12602
塔斯	-12603
遇到的	-12604
明确表示	-12605
▁邓	-12606
不该	-12607
同仁	-12608
层级	-12609
楼房	-12610
▁位于	-12611
福州市	-12612
截至今年	-12613
研发中心	-12614
也给	-12615
好看	-12616
旅游局	-12617
本期预计	-12618
公有	-12619
半数	-12620
家用	-12621
攻克	-12622
的客户	-12623
税务局	-12624
创新高	-12625
电子烟	-12626
zh	-12627
医科	-12628
改装	-12629
同样是	-12630
对这些	-12631
相关政策	-12632
墙上	-12633
拯救	-12634
新药	-12635
谈起	-12636
江泽民	-12637
三分之一	-12638
co	-12639
庭院	-12640
本田	-12641
风气	-12642
发出的	-12643
建交	-12644
满足了	-12645
产物	-12646
区位	-12647
等多家	-12648
该男子	-12649
国家公园	-12650
书屋	-12651
颇有	-12652
就不能	-12653
营业执照	-12654
议程	-12655
银保监会	-12656
土豆	-12657
艰辛	-12658
身材	-12659
▁一些	-12660
ital	-12661
可能出现	-12662
为之	-12663
基站	-12664
赎回	-12665
和政策	-12666
的游客	-12667
内幕	-12668
已将	-12669
二孩	-12670
诚意	-12671
途经	-12672
众所周	-12673
并进行	-12674
加固	-12675
植树	-12676
用力	-12677
▁科技	-12678
经济复苏	-12679
中西	-12680
匆匆	-12681
赛区	-12682
问候	-12683
单位和	-12684
不可或缺	-12685
把我	-12686
man	-12687
上升到	-12688
已全部	-12689
的形象	-12690
▁江苏省	-12691
二战	-12692
屠宰	-12693
想不到	-12694
艰苦奋斗	-12695
一如	-12696
出圈	-12697
bl	-12698
二审	-12699
何况	-12700
归来	-12701
青铜	-12702
也有人	-12703
业绩预告	-12704
抗日战争	-12705
消费升级	-12706
互鉴	-12707
多国	-12708
克林	-12709
农历	-12710
手指	-12711
海湾	-12712
西欧	-12713
适配	-12714
锅炉	-12715
的健康	-12716
级地震	-12717
二氧化碳	-12718
联席会议	-12719
严密	-12720
应诉	-12721
杭州亚运会	-12722
歌声	-12723
骨头	-12724
铁矿石	-12725
成年	-12726
春秋	-12727
物业管理	-12728
▁/	-12729
▁图源	-12730
县法院	-12731
我自己	-12732
减值	-12733
少儿	-12734
的双	-12735
产学研	-12736
有媒体	-12737
的动力	-12738
舰艇	-12739
觉悟	-12740
青藏	-12741
顾虑	-12742
ivo	-12743
世界级	-12744
可以用	-12745
的改革	-12746
斯诺	-12747
隐形	-12748
很好地	-12749
年一季度	-12750
Am	-12751
剖析	-12752
断裂	-12753
陪审	-12754
可能导致	-12755
肚子	-12756
行政复议	-12757
一经	-12758
丝毫	-12759
孙子	-12760
短时	-12761
解析	-12762
重度	-12763
性问题	-12764
奋斗目标	-12765
优点	-12766
名列	-12767
稻田	-12768
逆势	-12769
有更多	-12770
▁新京报记者	-12771
临沂	-12772
安卓	-12773
界限	-12774
监视	-12775
自驾	-12776
见效	-12777
强有力的	-12778
环球时报	-12779
人民大会堂	-12780
代工	-12781
会后	-12782
出血	-12783
崩溃	-12784
生气	-12785
我没有	-12786
不定	-12787
倒闭	-12788
影子	-12789
打包	-12790
珍珠	-12791
▁股民	-12792
利比亚	-12793
总量的	-12794
笑着说	-12795
司法机关	-12796
TM	-12797
保驾	-12798
可疑	-12799
设在	-12800
这只	-12801
克萨斯	-12802
为什么要	-12803
以其	-12804
很不	-12805
执教	-12806
让步	-12807
逝世	-12808
▁参考	-12809
涉及的	-12810
的销量	-12811
本院受理	-12812
▁京	-12813
两只	-12814
电线	-12815
的书	-12816
自查	-12817
很快就	-12818
▁据外媒	-12819
各县	-12820
达峰	-12821
及周边	-12822
越来越高	-12823
始于	-12824
孕妇	-12825
注定	-12826
百计	-12827
绿城	-12828
的消费者	-12829
报送	-12830
视听	-12831
的心情	-12832
当事人的	-12833
俄罗斯的	-12834
普遍认为	-12835
会是	-12836
患病	-12837
豆瓣	-12838
现在是	-12839
的实施	-12840
几千	-12841
路人	-12842
隐蔽	-12843
低成本	-12844
配备了	-12845
创历史新高	-12846
▁无	-12847
幕后	-12848
县委书记	-12849
进行调查	-12850
前锋	-12851
大类	-12852
投顾	-12853
枪击	-12854
其他地区	-12855
年年	-12856
高低	-12857
贵州茅台	-12858
湖区	-12859
站台	-12860
的主力	-12861
贡献力量	-12862
分销	-12863
DNA	-12864
▁这里	-12865
从这个	-12866
停放	-12867
到店	-12868
小号	-12869
沙发	-12870
锦旗	-12871
风向	-12872
在中国的	-12873
意见建议	-12874
动向	-12875
华的	-12876
挽救	-12877
▁坚持	-12878
人生的	-12879
激烈的	-12880
解释说	-12881
作为一名	-12882
多条	-12883
小吃	-12884
检方	-12885
生前	-12886
粮油	-12887
芒果	-12888
该局	-12889
贴心	-12890
八月	-12891
揭晓	-12892
望远	-12893
对他们	-12894
羽毛球	-12895
留守儿童	-12896
一到	-12897
曙光	-12898
深切	-12899
▁山东	-12900
覆盖率	-12901
一堂	-12902
徘徊	-12903
百强	-12904
居委会	-12905
排名第	-12906
等环节	-12907
截至发稿	-12908
多米	-12909
进一步增强	-12910
从不	-12911
谈论	-12912
与企业	-12913
惊人	-12914
星球	-12915
深情	-12916
连线	-12917
会见了	-12918
奥地利	-12919
缴存	-12920
预备	-12921
招待会	-12922
期开奖	-12923
这本书	-12924
市总工会	-12925
帝国	-12926
特质	-12927
社群	-12928
当地政府	-12929
价差	-12930
一九六	-12931
了这一	-12932
干什么	-12933
航空航天	-12934
最后一公里	-12935
封信	-12936
诱导	-12937
超高	-12938
角度来看	-12939
很低	-12940
浓郁	-12941
警报	-12942
家里的	-12943
之举	-12944
全党	-12945
四周	-12946
▁欧洲	-12947
应急处置	-12948
凡是	-12949
防灾	-12950
买的	-12951
尸体	-12952
联控	-12953
评定	-12954
组织了	-12955
计划生育	-12956
七月	-12957
民企	-12958
制作的	-12959
有许多	-12960
经济技术	-12961
专辑	-12962
亲情	-12963
稳妥	-12964
货源	-12965
走红	-12966
安全管理	-12967
徒步	-12968
挣扎	-12969
二等奖	-12970
各地区	-12971
对自己的	-12972
https	-12973
供求	-12974
停工	-12975
合组织	-12976
国务卿	-12977
文化活动	-12978
烧烤	-12979
美国在	-12980
忽然	-12981
报复	-12982
概股	-12983
辩证	-12984
控制在	-12985
开工建设	-12986
▁石	-12987
君安	-12988
问答	-12989
限期	-12990
新动能	-12991
设计和	-12992
动脉	-12993
抵御	-12994
座谈会上	-12995
ᅠᅠ	-12996
不惜	-12997
取胜	-12998
宝贝	-12999
撰写	-13000
的人民	-13001
管理者	-13002
孩子们的	-13003
海峰	-13004
繁忙	-13005
是一件	-13006
红十字会	-13007
回来了	-13008
无意	-13009
狠抓	-13010
私家	-13011
的身影	-13012
网站上	-13013
!”“	-13014
覆盖面	-13015
受限	-13016
引流	-13017
罗楠	-13018
雇佣	-13019
了这个	-13020
如何在	-13021
的综合	-13022
▁把	-13023
一国	-13024
纵深	-13025
长官	-13026
变相	-13027
还与	-13028
就业岗位	-13029
▁方	-13030
儿科	-13031
引用	-13032
便利化	-13033
出台的	-13034
应届	-13035
生产商	-13036
同城	-13037
多发	-13038
李佳	-13039
产品线	-13040
希望在	-13041
年收入	-13042
沃尔沃	-13043
投资机构	-13044
停留	-13045
公车	-13046
地形	-13047
▁大家	-13048
写字楼	-13049
的组织	-13050
燃料电池	-13051
租赁住房	-13052
ru	-13053
领衔	-13054
等业务	-13055
▁Z	-13056
吾尔	-13057
橄榄	-13058
自建	-13059
Net	-13060
济南市	-13061
等多项	-13062
保驾护航	-13063
机床	-13064
骨折	-13065
每年的	-13066
真的是	-13067
不断优化	-13068
江水	-13069
之战	-13070
抛售	-13071
服从	-13072
饱和	-13073
和人民	-13074
和建议	-13075
采访了	-13076
意义上的	-13077
发展有限公司	-13078
切尔西	-13079
投资有限公司	-13080
倒逼	-13081
打法	-13082
▁国内	-13083
同志们	-13084
十条	-13085
大山	-13086
徐州	-13087
药企	-13088
逼近	-13089
▁这位	-13090
总产值	-13091
较上年同期	-13092
Google	-13093
▁曹	-13094
乌拉	-13095
做饭	-13096
眼查	-13097
一年多	-13098
上半年的	-13099
党建引领	-13100
中去	-13101
公元	-13102
奥会	-13103
年将	-13104
看点	-13105
他们将	-13106
关门	-13107
津贴	-13108
高企	-13109
其他人	-13110
人居环境	-13111
习近平总书记关于	-13112
所作	-13113
散发	-13114
教育培训	-13115
爆竹	-13116
ich	-13117
参与的	-13118
对新	-13119
在学校	-13120
已开始	-13121
知识和	-13122
age	-13123
有限的	-13124
运营的	-13125
新发展格局	-13126
促成	-13127
收费站	-13128
红灯	-13129
身穿	-13130
量和	-13131
亩产	-13132
做成	-13133
困惑	-13134
牧场	-13135
▁深圳	-13136
Apple	-13137
偏高	-13138
市占	-13139
真心	-13140
了自己	-13141
即使是	-13142
救护车	-13143
核桃	-13144
超导	-13145
如果有	-13146
责任的	-13147
全面落实	-13148
▁下	-13149
开场	-13150
已达到	-13151
年第一季度	-13152
版图	-13153
科协	-13154
组团	-13155
罗夫	-13156
联谊	-13157
期间的	-13158
产业体系	-13159
变局	-13160
ass	-13161
代理人	-13162
思想的	-13163
措并举	-13164
突破口	-13165
理想信念	-13166
判处有期徒刑	-13167
天府	-13168
如实	-13169
误解	-13170
高举	-13171
主要为	-13172
最近的	-13173
不同的是	-13174
专项资金	-13175
亿立方米	-13176
相关企业	-13177
行政审批	-13178
宜宾	-13179
拥挤	-13180
新村	-13181
淄博	-13182
释法	-13183
八百	-13184
改建	-13185
结局	-13186
跟上	-13187
ink	-13188
为一体	-13189
城中村	-13190
忍不住	-13191
买单	-13192
车祸	-13193
低点	-13194
声誉	-13195
延误	-13196
建言	-13197
碳酸锂	-13198
规模为	-13199
不仅可以	-13200
办公室主任	-13201
多点	-13202
河水	-13203
智能汽车	-13204
道路交通安全	-13205
乐器	-13206
楼下	-13207
要让	-13208
鄂尔多	-13209
交通大学	-13210
不宜	-13211
交易平台	-13212
经营活动	-13213
不被	-13214
全文	-13215
安德	-13216
惠州	-13217
滨江	-13218
粉碎	-13219
降费	-13220
当下的	-13221
突破了	-13222
元钱	-13223
周六	-13224
护照	-13225
近来	-13226
球队的	-13227
着一个	-13228
也与	-13229
情人	-13230
的花	-13231
赶往	-13232
锂电	-13233
An	-13234
三类	-13235
冒充	-13236
评议	-13237
日发布的	-13238
区县	-13239
影业	-13240
昆仑	-13241
▁全球	-13242
东北地区	-13243
民间借贷	-13244
也存在	-13245
相比于	-13246
班的	-13247
盆地	-13248
从源头	-13249
工作人员表示	-13250
叔叔	-13251
绑架	-13252
侵略者	-13253
大湾区	-13254
智慧城市	-13255
are	-13256
创新型	-13257
情况来看	-13258
行政部门	-13259
抗洪	-13260
直营	-13261
任何人	-13262
再融资	-13263
一些地方	-13264
也应	-13265
判定	-13266
同等	-13267
得不	-13268
汗水	-13269
空前	-13270
维吾尔	-13271
吸引更多	-13272
社会主义建设	-13273
乳业	-13274
商报	-13275
看作	-13276
有信心	-13277
电影院	-13278
资本市场的	-13279
亲王	-13280
往前	-13281
▁企业	-13282
今后的	-13283
长期的	-13284
▁十	-13285
去哪儿	-13286
心中的	-13287
应收账款	-13288
自贸试验区	-13289
却被	-13290
积累了	-13291
记者会上	-13292
热血	-13293
长途	-13294
▁广东	-13295
上赛季	-13296
的母亲	-13297
在以	-13298
整洁	-13299
看望	-13300
几乎是	-13301
只有一个	-13302
单品	-13303
团圆	-13304
邮报	-13305
记者刘	-13306
万元以上	-13307
价格指数	-13308
当月	-13309
科大	-13310
▁重庆	-13311
实控人	-13312
点左右	-13313
工业园区	-13314
第一款	-13315
试点工作	-13316
折射	-13317
▁个	-13318
▁沈	-13319
半天	-13320
小学生	-13321
界人士	-13322
集团在	-13323
宇航	-13324
灾情	-13325
的后	-13326
该车	-13327
深加工	-13328
电信诈骗	-13329
高开	-13330
和使用	-13331
私募基金	-13332
用餐	-13333
oun	-13334
电影的	-13335
TikTok	-13336
▁股民福利来了	-13337
仍旧	-13338
公认	-13339
剪纸	-13340
谅解	-13341
很高的	-13342
勇士	-13343
巴尔	-13344
很小	-13345
指的是	-13346
少年儿童	-13347
改革创新	-13348
ec	-13349
剥削	-13350
山地	-13351
种草	-13352
过敏	-13353
饿了	-13354
鸟类	-13355
元现金	-13356
网信办	-13357
零售商	-13358
得到有效	-13359
乏力	-13360
则为	-13361
握手	-13362
独角兽	-13363
国防部长	-13364
甲醇	-13365
型基金	-13366
殴打	-13367
▁成都	-13368
外商投资	-13369
之势	-13370
打入	-13371
进城	-13372
▁基于	-13373
排名第一	-13374
汉族	-13375
ork	-13376
高技术	-13377
不相	-13378
尊敬	-13379
TCL	-13380
分别在	-13381
十一届	-13382
情况后	-13383
折叠屏	-13384
粮食生产	-13385
倒是	-13386
吴某	-13387
翻倍	-13388
▁为此	-13389
两年来	-13390
加快发展	-13391
也更	-13392
私有	-13393
连夜	-13394
专门的	-13395
周某	-13396
孙杨	-13397
突围	-13398
解说	-13399
里亚	-13400
媒体的	-13401
解决的	-13402
远高于	-13403
千米	-13404
去找	-13405
有保障	-13406
只是一个	-13407
▁余	-13408
众筹	-13409
大增	-13410
计时	-13411
执行董事	-13412
▁说	-13413
派的	-13414
了出来	-13415
半个月	-13416
同时还	-13417
自去年	-13418
还不够	-13419
剥夺	-13420
期末	-13421
你就	-13422
同情	-13423
全链条	-13424
在那里	-13425
涵盖了	-13426
中欧班列	-13427
风险管理	-13428
华西	-13429
庄村	-13430
类似于	-13431
央视新闻	-13432
相关工作	-13433
约合人民币	-13434
千方	-13435
封面	-13436
动物园	-13437
工程项目	-13438
九年	-13439
弹药	-13440
昼夜	-13441
来做	-13442
纲领	-13443
在整个	-13444
建设工作	-13445
会给	-13446
小哥	-13447
艾滋病	-13448
角度看	-13449
交易中心	-13450
众所周知	-13451
总台记者	-13452
收跌	-13453
越好	-13454
野蛮	-13455
取消了	-13456
巴菲特	-13457
最初的	-13458
集中度	-13459
在这方面	-13460
已向	-13461
挤压	-13462
援朝	-13463
肉类	-13464
领馆	-13465
拜仁	-13466
东路	-13467
四级	-13468
寒冬	-13469
盟友	-13470
省会	-13471
将出现	-13472
不强	-13473
概况	-13474
的红	-13475
言之	-13476
ont	-13477
传承人	-13478
半年度	-13479
思想和	-13480
青年的	-13481
▁w	-13482
而行	-13483
就在于	-13484
我们都	-13485
出新	-13486
房的	-13487
振奋	-13488
比对	-13489
亿千瓦	-13490
VC	-13491
性与	-13492
▁四是	-13493
分许	-13494
当即	-13495
我爱	-13496
萨尔	-13497
里克	-13498
北向资金	-13499
持股比例	-13500
电子信息	-13501
兴建	-13502
起源	-13503
雨雪	-13504
作为中国	-13505
能力建设	-13506
cm	-13507
扩充	-13508
留存	-13509
农业科技	-13510
全额	-13511
独具	-13512
目击	-13513
Meta	-13514
一个新的	-13515
被认为是	-13516
鄂尔多斯	-13517
固定资产投资	-13518
积电	-13519
联防联控	-13520
优于	-13521
太极	-13522
破除	-13523
这点	-13524
的一致	-13525
长沙市	-13526
日是	-13527
车票	-13528
▁民警	-13529
在当前	-13530
委员会的	-13531
改革发展	-13532
监管机构	-13533
LL	-13534
九月	-13535
名家	-13536
int	-13537
致命	-13538
地亚	-13539
审视	-13540
抗原	-13541
日夜	-13542
老大	-13543
出不穷	-13544
宝贵的	-13545
的音乐	-13546
而这些	-13547
也不知道	-13548
无处	-13549
负有	-13550
ows	-13551
海淀区	-13552
的一场	-13553
mail	-13554
否定	-13555
交割	-13556
需谨慎	-13557
多是	-13558
早早	-13559
过错	-13560
资本的	-13561
持续优化	-13562
巡航	-13563
较弱	-13564
领投	-13565
主要从事	-13566
数据分析	-13567
GA	-13568
之作	-13569
地对	-13570
中华文明	-13571
自然保护区	-13572
华中	-13573
水下	-13574
一定能	-13575
落到实处	-13576
江门	-13577
的语言	-13578
层出不穷	-13579
并称	-13580
损益	-13581
王子	-13582
童年	-13583
莱斯	-13584
道上	-13585
镇压	-13586
REITs	-13587
总支	-13588
标配	-13589
福田	-13590
聆听	-13591
川县	-13592
抛弃	-13593
禁区	-13594
要用	-13595
运气	-13596
珠三角	-13597
环境污染	-13598
净额	-13599
可视	-13600
▁广西	-13601
社区居民	-13602
总的	-13603
的几	-13604
▁苏联	-13605
他希望	-13606
每小时	-13607
指着	-13608
毒株	-13609
留意	-13610
百花	-13611
题目	-13612
lix	-13613
深厚的	-13614
五六	-13615
大势	-13616
妨碍	-13617
干活	-13618
关注度	-13619
世卫组织	-13620
正式发布	-13621
罪名	-13622
浦东新区	-13623
严防	-13624
我军	-13625
报到	-13626
死刑	-13627
永恒	-13628
通州	-13629
间断	-13630
驳回	-13631
TS	-13632
一月	-13633
德斯	-13634
打下	-13635
时效	-13636
申办	-13637
获得者	-13638
资企业	-13639
年第三季度	-13640
山洪	-13641
的黑	-13642
创新和	-13643
发展机遇	-13644
我国经济	-13645
▁法	-13646
就可	-13647
无私	-13648
下半场	-13649
不规范	-13650
政府对	-13651
发展趋势	-13652
的影响力	-13653
时起	-13654
次的	-13655
组织部	-13656
因素影响	-13657
天鹅	-13658
威马	-13659
宁县	-13660
我有	-13661
时限	-13662
片中	-13663
ner	-13664
为消费者	-13665
之二	-13666
蓝筹	-13667
交接	-13668
商超	-13669
教研	-13670
楼梯	-13671
烦恼	-13672
风控	-13673
因为它	-13674
应用的	-13675
进一步推动	-13676
商人	-13677
多鹤	-13678
金刚	-13679
的担忧	-13680
获取更多	-13681
充当	-13682
塔利	-13683
承销	-13684
的非	-13685
公关	-13686
能动	-13687
酿酒	-13688
CEP	-13689
政策性	-13690
至少有	-13691
将向	-13692
油画	-13693
清零	-13694
网页	-13695
量达	-13696
会影响	-13697
有很大	-13698
有的人	-13699
能看到	-13700
洛伐	-13701
↓**	-13702
使用权	-13703
年实现	-13704
表示感谢	-13705
财富管理	-13706
巧妙	-13707
不足以	-13708
的对象	-13709
有序推进	-13710
歌剧	-13711
税务总局	-13712
贵宾	-13713
vivo	-13714
公平竞争	-13715
海峡两岸	-13716
统计数据	-13717
体质	-13718
原生	-13719
履约	-13720
相传	-13721
站长	-13722
了一家	-13723
台积电	-13724
消费券	-13725
健康成长	-13726
到访	-13727
地段	-13728
柳州	-13729
仅仅是	-13730
进校园	-13731
大幅下降	-13732
抽检	-13733
▁而且	-13734
不仅在	-13735
情况和	-13736
前五	-13737
向下	-13738
秋天	-13739
研究机构	-13740
名牌	-13741
总价	-13742
金银	-13743
频发	-13744
企业中	-13745
的理论	-13746
下行压力	-13747
某种程度上	-13748
▁夏	-13749
焊接	-13750
好消息	-13751
市中心	-13752
曾多次	-13753
的区域	-13754
号称	-13755
威海	-13756
提到了	-13757
攻坚战	-13758
的心理	-13759
中央纪委	-13760
提炼	-13761
特产	-13762
的白	-13763
鸿蒙	-13764
日收盘	-13765
的高速	-13766
工商银行	-13767
接种疫苗	-13768
蝴蝶	-13769
路子	-13770
对未来	-13771
总公司	-13772
抗美援朝	-13773
物业公司	-13774
九龙	-13775
国产化	-13776
开玩笑	-13777
只有在	-13778
刚性	-13779
吞吐	-13780
城里	-13781
拨款	-13782
GPU	-13783
生成式	-13784
的到来	-13785
▁一方面	-13786
党的十九	-13787
应用程序	-13788
治理能力	-13789
文的	-13790
解锁	-13791
然后再	-13792
有一定的	-13793
为新	-13794
噪声	-13795
底盘	-13796
淡季	-13797
草莓	-13798
表扬	-13799
建立在	-13800
这一年	-13801
这是一种	-13802
之急	-13803
畜禽	-13804
人民法庭	-13805
信息安全	-13806
兼具	-13807
山路	-13808
该项	-13809
用户在	-13810
高层次	-13811
务必	-13812
反转	-13813
会产生	-13814
的员工	-13815
已经超过	-13816
豪宅	-13817
重构	-13818
发挥着	-13819
洛伐克	-13820
评论员	-13821
自制	-13822
▁加强	-13823
手中的	-13824
要及时	-13825
年薪	-13826
编写	-13827
耽误	-13828
岁以上	-13829
得到的	-13830
参加会议	-13831
中国人民解放军	-13832
▁红	-13833
一则	-13834
令营	-13835
建档	-13836
服用	-13837
注明	-13838
种的	-13839
多岁的	-13840
现实的	-13841
相同的	-13842
营业额	-13843
witter	-13844
决胜	-13845
刻意	-13846
社长	-13847
高盛	-13848
知识产权保护	-13849
晶硅	-13850
过分	-13851
铺设	-13852
骗局	-13853
规模最大的	-13854
争端	-13855
全军	-13856
单月	-13857
高峰期	-13858
美元指数	-13859
市人民政府	-13860
ge	-13861
标本	-13862
要对	-13863
了一张	-13864
衍生品	-13865
针对性的	-13866
农技	-13867
神舟	-13868
落的	-13869
工商联	-13870
的一点	-13871
说什么	-13872
预计将	-13873
领导者	-13874
官司	-13875
惯例	-13876
栖息	-13877
▁to	-13878
严重影响	-13879
数据安全	-13880
牢固树立	-13881
▁自动	-13882
专家认为	-13883
床位	-13884
张贴	-13885
礼仪	-13886
世界第一	-13887
目前来看	-13888
在一定程度上	-13889
偏离	-13890
一般的	-13891
留住	-13892
门的	-13893
他们还	-13894
在深圳	-13895
共同发展	-13896
医疗保障	-13897
▁****	-13898
深挖	-13899
雄安新区	-13900
神圣	-13901
▁投资	-13902
紧接着	-13903
汽车产业	-13904
的市场份额	-13905
▁d	-13906
雷军	-13907
城市群	-13908
肯定是	-13909
千方百计	-13910
智能家居	-13911
突发事件	-13912
二十五	-13913
上期开出	-13914
中国证监会	-13915
到目前为止	-13916
▁**↓**	-13917
却不	-13918
安宁	-13919
眼球	-13920
高发	-13921
ist	-13922
的巨大	-13923
香港的	-13924
族自治县	-13925
微型	-13926
想办法	-13927
支持的	-13928
塞尔维亚	-13929
停运	-13930
收涨	-13931
选购	-13932
医科大学	-13933
有关情况	-13934
人民为中心	-13935
下线	-13936
变了	-13937
百余	-13938
零件	-13939
VIP	-13940
在没有	-13941
地缘政治	-13942
系列产品	-13943
农副	-13944
挽回	-13945
推测	-13946
霸权	-13947
预示	-13948
时发现	-13949
比较高	-13950
要继续	-13951
销售渠道	-13952
延庆	-13953
老牌	-13954
为大家	-13955
公司拟	-13956
对应的	-13957
研究室	-13958
国内生产总值	-13959
到中	-13960
阿斯	-13961
高职	-13962
张先生	-13963
流媒体	-13964
科研院所	-13965
这一问题	-13966
壮族自治区	-13967
研究中心主任	-13968
七个	-13969
而至	-13970
职员	-13971
不同意	-13972
和政府	-13973
多渠道	-13974
落实好	-13975
数据要素	-13976
单边	-13977
搬运	-13978
华侨华人	-13979
合作共赢	-13980
后区	-13981
序列	-13982
线条	-13983
造血	-13984
国家发展改革委	-13985
从前	-13986
国立	-13987
总署	-13988
记者看到	-13989
在此基础上	-13990
生病	-13991
因为他	-13992
学生在	-13993
将根据	-13994
的开发	-13995
钓鱼岛	-13996
成果转化	-13997
看完	-13998
西路	-13999
诊所	-14000
限量	-14001
各行各业	-14002
一首	-14003
吸取	-14004
带回	-14005
年被	-14006
比拼	-14007
穿上	-14008
体育局	-14009
的比重	-14010
瞩目的	-14011
积极响应	-14012
两千	-14013
华文	-14014
顺义	-14015
新东方	-14016
流行的	-14017
班主任	-14018
救人	-14019
断了	-14020
自担	-14021
预见	-14022
首套	-14023
北区	-14024
警官	-14025
铃薯	-14026
天花板	-14027
生物学	-14028
昔日	-14029
公益性	-14030
传票	-14031
把关	-14032
照料	-14033
▁消息	-14034
月上旬	-14035
全面发展	-14036
网络空间	-14037
结构性改革	-14038
推翻	-14039
站位	-14040
中之重	-14041
今年前	-14042
受影响	-14043
大运河	-14044
已经从	-14045
汕头	-14046
在全市	-14047
的重要内容	-14048
卫冕	-14049
早前	-14050
脚下	-14051
系统和	-14052
此刻	-14053
白的	-14054
调价	-14055
ong	-14056
普陀	-14057
波罗	-14058
积雪	-14059
▁安全	-14060
可靠性	-14061
疾病的	-14062
扣非净利润	-14063
学前	-14064
重工	-14065
The	-14066
加快构建	-14067
发明专利	-14068
记者注意到	-14069
工作领导小组	-14070
换手	-14071
问我	-14072
办主任	-14073
投资机会	-14074
配套设施	-14075
八个	-14076
极度	-14077
答卷	-14078
的都是	-14079
进入到	-14080
就业创业	-14081
上空	-14082
冷战	-14083
大妈	-14084
斯里	-14085
焦炭	-14086
私域	-14087
积压	-14088
首选	-14089
斗争中	-14090
做市	-14091
名校	-14092
棋手	-14093
工业和信息化部	-14094
冒着	-14095
月和	-14096
风吹	-14097
以至于	-14098
方方面	-14099
让观众	-14100
务工人员	-14101
Cl	-14102
好于	-14103
探寻	-14104
阅兵	-14105
的地位	-14106
的科技	-14107
国货	-14108
飞跃	-14109
处理好	-14110
度假区	-14111
等企业	-14112
atch	-14113
委员会副主任	-14114
息息	-14115
技师	-14116
谋取	-14117
发现问题	-14118
保暖	-14119
幻想	-14120
房地	-14121
党的领导	-14122
中称	-14123
保值	-14124
尼奥	-14125
建投	-14126
很简单	-14127
来进行	-14128
上证指数	-14129
内存	-14130
我都	-14131
旅馆	-14132
远东	-14133
齐鲁	-14134
大剧院	-14135
已经达到	-14136
中了	-14137
众人	-14138
天数	-14139
急难	-14140
查封	-14141
树林	-14142
追赶	-14143
造船	-14144
也随之	-14145
则认为	-14146
只是在	-14147
和地方	-14148
腺癌	-14149
领会	-14150
GMV	-14151
▁人民	-14152
把这些	-14153
的旅游	-14154
结构的	-14155
中国银行	-14156
▁任	-14157
偏向	-14158
右手	-14159
含义	-14160
较长	-14161
开始的	-14162
服务员	-14163
也正是	-14164
大幅增加	-14165
不分	-14166
沉重	-14167
▁前区	-14168
我们还	-14169
临港	-14170
只在	-14171
扭矩	-14172
非常好	-14173
不构成投资建议	-14174
ox	-14175
▁肖	-14176
冶金	-14177
界定	-14178
督办	-14179
节后	-14180
肯定会	-14181
黄金周	-14182
处境	-14183
对流	-14184
月份以来	-14185
犯罪事实	-14186
均未	-14187
带动下	-14188
日期间	-14189
设备和	-14190
这时候	-14191
人与自然	-14192
混合动力	-14193
经济建设	-14194
反抗	-14195
和美	-14196
国人	-14197
在职	-14198
将使	-14199
是用	-14200
阴影	-14201
上市后	-14202
焚烧	-14203
的头	-14204
商品住宅	-14205
通过网络	-14206
掩盖	-14207
杂交	-14208
缓缓	-14209
any	-14210
月亮	-14211
气势	-14212
羊城	-14213
要去	-14214
▁疫情	-14215
证监局	-14216
水分	-14217
近视	-14218
这才	-14219
的监管	-14220
艺术节	-14221
城市更新	-14222
这场比赛	-14223
进行全面	-14224
收拾	-14225
明知	-14226
秦皇	-14227
扩大到	-14228
没办法	-14229
马铃薯	-14230
相关信息	-14231
贷款余额	-14232
的重要举措	-14233
图文	-14234
沿岸	-14235
”),	-14236
在农村	-14237
检察长	-14238
我们应该	-14239
有色金属	-14240
奶牛	-14241
母婴	-14242
要看	-14243
▁最终	-14244
卫生院	-14245
大运会	-14246
的贡献	-14247
第一天	-14248
数据来看	-14249
相关人员	-14250
东京奥运会	-14251
偷偷	-14252
史料	-14253
在西	-14254
巴士	-14255
既能	-14256
重任	-14257
并不多	-14258
的日本	-14259
农业大学	-14260
何种	-14261
让其	-14262
▁天津	-14263
要通过	-14264
中国足球	-14265
据新华社	-14266
在这种情况下	-14267
▁元	-14268
农资	-14269
地主	-14270
政委	-14271
敬老	-14272
理发	-14273
▁德国	-14274
基本的	-14275
踊跃	-14276
也正在	-14277
没有了	-14278
作为一种	-14279
预计今年	-14280
▁田	-14281
我已经	-14282
提供更	-14283
开着	-14284
有近	-14285
芜湖	-14286
产业园区	-14287
兼容	-14288
制定的	-14289
困难和	-14290
数字技术	-14291
ix	-14292
仿真	-14293
管局	-14294
群众路线	-14295
在第	-14296
脱欧	-14297
节气	-14298
各族人民	-14299
任期	-14300
单个	-14301
紧随	-14302
为确保	-14303
已基本	-14304
设立的	-14305
?“	-14306
信赖	-14307
像素	-14308
内心的	-14309
奥斯卡	-14310
新格局	-14311
新赛季	-14312
标准和	-14313
DI	-14314
▁崔	-14315
二代	-14316
台胞	-14317
曾任	-14318
你怎么	-14319
可能有	-14320
她表示	-14321
依依	-14322
信誉	-14323
河内	-14324
第三个	-14325
完全可以	-14326
以实际行动	-14327
哪吒	-14328
黑客	-14329
各自的	-14330
年至今	-14331
早些时候	-14332
FC	-14333
此番	-14334
秘鲁	-14335
最后一次	-14336
要将	-14337
兰卡	-14338
她还	-14339
高昂	-14340
最重要的是	-14341
▁蒋	-14342
三维	-14343
已成	-14344
带上	-14345
斯蒂	-14346
比武	-14347
金沙	-14348
小区的	-14349
数量的	-14350
人被	-14351
伤口	-14352
该公司的	-14353
交通运输部	-14354
天才	-14355
抽调	-14356
股份的	-14357
:【	-14358
仅在	-14359
均可	-14360
微观	-14361
快来	-14362
挪用	-14363
火的	-14364
起码	-14365
技术上	-14366
国企改革	-14367
提供服务	-14368
侵占	-14369
出差	-14370
富力	-14371
撤出	-14372
涨跌	-14373
清代	-14374
篮子	-14375
等其他	-14376
企业经营	-14377
VS	-14378
年就	-14379
拥有的	-14380
通过的	-14381
产业升级	-14382
党委委员	-14383
引领作用	-14384
新发展理念	-14385
追问	-14386
驻地	-14387
纽约时报	-14388
联系方式	-14389
军团	-14390
如其	-14391
快报	-14392
▁网友	-14393
图片来源	-14394
始终保持	-14395
社会治安	-14396
拖延	-14397
牲畜	-14398
直面	-14399
劝阻	-14400
多大	-14401
几年前	-14402
到来的	-14403
向上的	-14404
板块的	-14405
毛主席的	-14406
股东大会	-14407
反正	-14408
梅花	-14409
股通	-14410
钻研	-14411
同时在	-14412
被发现	-14413
flix	-14414
不光	-14415
加仓	-14416
驻村	-14417
指导员	-14418
望远镜	-14419
精彩的	-14420
小众	-14421
尺度	-14422
战区	-14423
活泼	-14424
等都	-14425
重伤	-14426
中科院	-14427
这说明	-14428
三期	-14429
交出	-14430
做事	-14431
国际足联	-14432
综合利用	-14433
抽象	-14434
无声	-14435
消杀	-14436
石墨	-14437
专业人士	-14438
统筹推进	-14439
进一步发展	-14440
刚好	-14441
干线	-14442
办法官	-14443
指导价	-14444
专家表示	-14445
LA	-14446
书院	-14447
酒驾	-14448
性作用	-14449
投资和	-14450
需求端	-14451
与时	-14452
做空	-14453
噪音	-14454
送去	-14455
间隔	-14456
的儿子	-14457
高血压	-14458
AIGC	-14459
多措并举	-14460
单项	-14461
羽绒	-14462
效率和	-14463
的时刻	-14464
的转变	-14465
国道	-14466
整体来看	-14467
产品和服务	-14468
工程院院士	-14469
壁画	-14470
斯大	-14471
湿度	-14472
特有的	-14473
明确要求	-14474
Wh	-14475
也正	-14476
有力地	-14477
碳达峰	-14478
寓意	-14479
怀着	-14480
打压	-14481
去年底	-14482
地下水	-14483
将面临	-14484
是由于	-14485
的理由	-14486
进一步强化	-14487
三条	-14488
容纳	-14489
羡慕	-14490
行贿	-14491
衣物	-14492
规划建设	-14493
四方	-14494
庭长	-14495
等你	-14496
系数	-14497
划定	-14498
计提	-14499
▁后来	-14500
战略合作协议	-14501
人造	-14502
大理	-14503
点球	-14504
玩耍	-14505
百元	-14506
肥胖	-14507
讲堂	-14508
不论是	-14509
文化节	-14510
面积约	-14511
套现	-14512
鼻子	-14513
的年轻人	-14514
村子	-14515
检出	-14516
清凉	-14517
沃尔玛	-14518
的阶段	-14519
要做好	-14520
事故发生	-14521
天气预报	-14522
天河	-14523
柜台	-14524
浑身	-14525
物体	-14526
维埃	-14527
更多人	-14528
管理条例	-14529
海水	-14530
热身	-14531
考场	-14532
期限为	-14533
债券市场	-14534
学区	-14535
居高	-14536
靠着	-14537
准备了	-14538
和平与	-14539
年春节	-14540
到家	-14541
又被	-14542
认罪	-14543
避开	-14544
住房和	-14545
流动资金	-14546
EM	-14547
章程	-14548
轮椅	-14549
ick	-14550
也希望	-14551
游戏的	-14552
社区卫生	-14553
▁汪	-14554
地头	-14555
板上	-14556
特长	-14557
他已经	-14558
互信	-14559
美女	-14560
融通	-14561
大范围	-14562
日晚间公告	-14563
偏差	-14564
军用	-14565
诺夫	-14566
质检	-14567
全国性	-14568
六个月	-14569
的大量	-14570
光伏发电	-14571
加热	-14572
夜市	-14573
嵌入	-14574
踏上	-14575
第一书记	-14576
剔除	-14577
街上	-14578
配偶	-14579
第四次	-14580
民主主义	-14581
强奸	-14582
的民族	-14583
加沙地带	-14584
存放	-14585
酝酿	-14586
为全球	-14587
金融业	-14588
一枚	-14589
喜茶	-14590
连连	-14591
间谍	-14592
▁范	-14593
写下	-14594
嘉定	-14595
多岁	-14596
尔特	-14597
得主	-14598
接过	-14599
盯着	-14600
限定	-14601
▁需要	-14602
一步步	-14603
为目的	-14604
秦皇岛	-14605
收录	-14606
日韩	-14607
邢台	-14608
嘉年华	-14609
第二位	-14610
贡献了	-14611
也越来越	-14612
偏远	-14613
善良	-14614
果树	-14615
特邀	-14616
率的	-14617
占比为	-14618
各环节	-14619
心血管	-14620
这一天	-14621
停在	-14622
展馆	-14623
放眼	-14624
燃煤	-14625
对不起	-14626
把这个	-14627
收获了	-14628
烟花爆竹	-14629
出线	-14630
城际	-14631
大为	-14632
长治	-14633
所需的	-14634
公信	-14635
新任	-14636
博士生	-14637
放弃了	-14638
较多的	-14639
人民公社	-14640
串联	-14641
公办	-14642
攻势	-14643
教委	-14644
转到	-14645
了解了	-14646
第一步	-14647
不法分子	-14648
对外贸易	-14649
融媒体中心	-14650
王者	-14651
罚单	-14652
过得	-14653
所学校	-14654
扩大了	-14655
漫长的	-14656
这其中	-14657
卫生健康委	-14658
▁程	-14659
一环	-14660
减负	-14661
该片	-14662
家协会	-14663
的意思	-14664
达成了	-14665
这方面	-14666
▁钟	-14667
渲染	-14668
祝愿	-14669
精简	-14670
规模和	-14671
民事诉讼	-14672
国网	-14673
开来	-14674
模样	-14675
港澳台	-14676
哈尔滨市	-14677
产业链供应链	-14678
人民代表大会	-14679
摸排	-14680
潜水	-14681
舰队	-14682
险情	-14683
指数为	-14684
民事判决书	-14685
华泰	-14686
摊位	-14687
丰富了	-14688
年龄段	-14689
肯尼亚	-14690
项目和	-14691
农业发展	-14692
▁iPhone	-14693
供述	-14694
入伍	-14695
现车	-14696
阻挡	-14697
风尚	-14698
涨幅为	-14699
化学品	-14700
阿里云	-14701
世界一流	-14702
侧重	-14703
德的	-14704
心思	-14705
摸清	-14706
不停地	-14707
等国家	-14708
上山	-14709
一辈子	-14710
也认为	-14711
方向盘	-14712
重要指示	-14713
乔治	-14714
优美	-14715
主要产品	-14716
运载火箭	-14717
港通	-14718
自带	-14719
触发	-14720
了一定	-14721
持续的	-14722
核心区	-14723
等重大	-14724
属实	-14725
开口	-14726
有线	-14727
防控措施	-14728
常务委员会	-14729
格式	-14730
涉农	-14731
王朝	-14732
随身	-14733
领涨	-14734
第四届	-14735
▁魏	-14736
相遇	-14737
他自己	-14738
国集团	-14739
并讲话	-14740
敌人的	-14741
本身的	-14742
燃油车	-14743
成功举办	-14744
时在	-14745
因为在	-14746
服务费	-14747
等行为	-14748
车辆的	-14749
▁潘	-14750
住所	-14751
名词	-14752
家家	-14753
彩色	-14754
旋转	-14755
源地	-14756
纠结	-14757
总体上	-14758
的另一	-14759
贸市场	-14760
主要原因	-14761
卫生组织	-14762
的投资者	-14763
复星	-14764
太湖	-14765
尼迪	-14766
是被	-14767
破裂	-14768
上个月	-14769
工厂的	-14770
亚太地区	-14771
坚决反对	-14772
所述	-14773
在线教育	-14774
更多信息	-14775
▁古	-14776
▁袁	-14777
女篮	-14778
德华	-14779
欣慰	-14780
滞留	-14781
遗失	-14782
了一起	-14783
要强化	-14784
iPad	-14785
在城市	-14786
思政课	-14787
拍摄的	-14788
集体经济	-14789
布里	-14790
干燥	-14791
戴着	-14792
格斯	-14793
龙湖	-14794
软硬件	-14795
剧团	-14796
听见	-14797
起床	-14798
此消息	-14799
和李	-14800
大省	-14801
接见	-14802
计生	-14803
产品研发	-14804
体育总局	-14805
吉尔	-14806
推理	-14807
田野	-14808
高手	-14809
上周五	-14810
赔偿责任	-14811
喀什	-14812
辞去	-14813
iOS	-14814
上下功夫	-14815
头盔	-14816
产品在	-14817
对这个	-14818
的青年	-14819
老将	-14820
一年来	-14821
优势和	-14822
有针对性	-14823
犯罪分子	-14824
堵塞	-14825
破门	-14826
管理体系	-14827
学金	-14828
日为	-14829
满贯	-14830
净卖出	-14831
在家里	-14832
等传统	-14833
这是我	-14834
就是为了	-14835
文明实践	-14836
方面表示	-14837
人行	-14838
航道	-14839
让人们	-14840
其中一个	-14841
?』	-14842
▁◎	-14843
三元	-14844
庄严	-14845
议论	-14846
也应该	-14847
占全国	-14848
发出了	-14849
我们看到	-14850
万例	-14851
孤立	-14852
▁以上	-14853
价值链	-14854
最大化	-14855
畜牧业	-14856
因为他们	-14857
研究团队	-14858
旅游市场	-14859
一间	-14860
侦破	-14861
南路	-14862
量大	-14863
养老院	-14864
的概率	-14865
医疗健康	-14866
sp	-14867
低估	-14868
杂技	-14869
会继续	-14870
日夜间	-14871
不是一个	-14872
当好	-14873
当期	-14874
日方	-14875
来电	-14876
讲师	-14877
全面从严治	-14878
南区	-14879
三年的	-14880
激发了	-14881
理论上	-14882
社区的	-14883
名城	-14884
挣钱	-14885
兰州市	-14886
▁七	-14887
安门	-14888
或者其他	-14889
批发市场	-14890
巧克	-14891
把控	-14892
民国	-14893
筹码	-14894
试用	-14895
难的	-14896
▁本周	-14897
降本增效	-14898
台州	-14899
从中国	-14900
三个方面	-14901
深入实施	-14902
四月	-14903
是非	-14904
的黄	-14905
超声	-14906
随处	-14907
亚洲杯	-14908
厦门市	-14909
陌生人	-14910
股权转让	-14911
将达	-14912
开阔	-14913
泸州	-14914
调味	-14915
停车位	-14916
各民族	-14917
比上月	-14918
持续开展	-14919
目标任务	-14920
荣誉称号	-14921
▁明	-14922
他想	-14923
战队	-14924
涉足	-14925
出版的	-14926
热火	-14927
PPI	-14928
与服务	-14929
创新性	-14930
总产量	-14931
关于加强	-14932
收入增长	-14933
▁省	-14934
体积	-14935
而知	-14936
价格战	-14937
动摇	-14938
宽带	-14939
年为	-14940
疑惑	-14941
风味	-14942
亿人民币	-14943
作文	-14944
在看	-14945
感触	-14946
我去	-14947
经受	-14948
菜单	-14949
警车	-14950
mon	-14951
工程的	-14952
成年人	-14953
收入为	-14954
在此之前	-14955
不符	-14956
又不	-14957
忠实	-14958
敏锐	-14959
和世界	-14960
长安汽车	-14961
新中国成立	-14962
回流	-14963
定居	-14964
开播	-14965
晓东	-14966
格林	-14967
不会有	-14968
中的一	-14969
了新的	-14970
加大了	-14971
其所	-14972
内陆	-14973
女性的	-14974
实力的	-14975
的群众	-14976
做大做强	-14977
历来	-14978
真情	-14979
院线	-14980
知识的	-14981
跨区域	-14982
沿途	-14983
纸质	-14984
之外的	-14985
要实现	-14986
多起	-14987
得太	-14988
授信	-14989
过滤	-14990
过节	-14991
钉钉	-14992
在英国	-14993
产业的发展	-14994
前辈	-14995
前述	-14996
模组	-14997
灰色	-14998
翻身	-14999
平均每	-15000
的公告	-15001
表现在	-15002
建设用地	-15003
特许	-15004
货款	-15005
old	-15006
下中农	-15007
的两个	-15008
的训练	-15009
承办法官	-15010
和不	-15011
曾被	-15012
让群众	-15013
但实际上	-15014
专员	-15015
父子	-15016
落幕	-15017
财险	-15018
车牌	-15019
等特点	-15020
▁广东省	-15021
专车	-15022
事了	-15023
人流	-15024
区市	-15025
家装	-15026
编队	-15027
获评	-15028
不断加强	-15029
中央军委	-15030
风险自担	-15031
进一步深化	-15032
下架	-15033
倒塌	-15034
店主	-15035
爱民	-15036
退伍	-15037
与世界	-15038
摄影师	-15039
积极配合	-15040
为核心的党中央	-15041
ib	-15042
密接	-15043
爱护	-15044
缓刑	-15045
上一个	-15046
上涨了	-15047
的挑战	-15048
远低于	-15049
送给你	-15050
农民增收	-15051
互联网公司	-15052
之夜	-15053
变的	-15054
官宣	-15055
搭乘	-15056
筹建	-15057
捆绑	-15058
普洱	-15059
海鲜	-15060
副省长	-15061
工商业	-15062
▁记者在	-15063
SO	-15064
以致	-15065
价位	-15066
台账	-15067
彭博	-15068
快餐	-15069
最受	-15070
迎战	-15071
”。(	-15072
▁本期	-15073
法定代表人	-15074
或许是	-15075
景气度	-15076
错误的	-15077
遥感	-15078
这不仅	-15079
需求和	-15080
业务发展	-15081
冰雪运动	-15082
激光雷达	-15083
认真学习	-15084
长城汽车	-15085
受阻	-15086
寒潮	-15087
无视	-15088
沙龙	-15089
财力	-15090
创造的	-15091
逾期未	-15092
主席习近平	-15093
乙烯	-15094
山大	-15095
年化	-15096
扩产	-15097
漫长	-15098
电报	-15099
缴获	-15100
置于	-15101
ram	-15102
内容和	-15103
的前景	-15104
纯电动	-15105
城市发展	-15106
资金净流入	-15107
oh	-15108
▁丁	-15109
午餐	-15110
可以为	-15111
装备制造	-15112
上路	-15113
不力	-15114
但因	-15115
做实	-15116
新社	-15117
猛烈	-15118
酒后	-15119
年年报	-15120
不减	-15121
年级	-15122
申万	-15123
芭蕾	-15124
来袭	-15125
蓄水	-15126
可支配	-15127
海底捞	-15128
的自然	-15129
人民生活	-15130
企业提供	-15131
冶炼	-15132
动辄	-15133
外语	-15134
好多	-15135
小环	-15136
治病	-15137
边疆	-15138
多少钱	-15139
的股票	-15140
视频中	-15141
解决的问题	-15142
在意	-15143
本判决	-15144
应急救援	-15145
俱进	-15146
搬到	-15147
瞩目	-15148
血糖	-15149
豆腐	-15150
野心	-15151
节目的	-15152
机构投资者	-15153
▁回	-15154
品格	-15155
妥协	-15156
朴素	-15157
现场的	-15158
非常大	-15159
值得关注	-15160
开关	-15161
特效	-15162
十年来	-15163
反对派	-15164
第一届	-15165
人道主义	-15166
创新中心	-15167
治理体系	-15168
股权投资	-15169
之都	-15170
在高	-15171
福岛	-15172
经查	-15173
参谋长	-15174
在不同	-15175
紧张局势	-15176
内核	-15177
手套	-15178
招收	-15179
电磁	-15180
震慑	-15181
同质化	-15182
学强	-15183
退货	-15184
也纷纷	-15185
▁据日本	-15186
倒挂	-15187
堡垒	-15188
液体	-15189
的全部	-15190
零售额	-15191
CA	-15192
被捕	-15193
配售	-15194
落后的	-15195
国有资产	-15196
对面	-15197
他们会	-15198
在他看来	-15199
生活中的	-15200
就没	-15201
管护	-15202
开幕式上	-15203
金融风险	-15204
社交媒体上	-15205
中来	-15206
党群	-15207
能有	-15208
▁拉	-15209
叮咚	-15210
就好	-15211
成像	-15212
而易	-15213
阵阵	-15214
邀请了	-15215
记者来到	-15216
数字人民币	-15217
?》	-15218
提请	-15219
称其	-15220
lay	-15221
国家对	-15222
市占率	-15223
调查组	-15224
关键时刻	-15225
半夜	-15226
场外	-15227
座舱	-15228
投影	-15229
步步	-15230
的马	-15231
清楚地	-15232
中场	-15233
台词	-15234
更像	-15235
违章	-15236
西北部	-15237
港区	-15238
空袭	-15239
代言人	-15240
和销售	-15241
的大门	-15242
协会会长	-15243
工作岗位	-15244
招股书显示	-15245
尼尔	-15246
岛屿	-15247
带走	-15248
战后	-15249
保健品	-15250
时间长	-15251
活力的	-15252
▁向	-15253
体彩	-15254
智造	-15255
专业技术	-15256
的数据显示	-15257
了大	-15258
劳力	-15259
四千	-15260
女王	-15261
方舱	-15262
晶圆	-15263
积蓄	-15264
冷冻	-15265
数的	-15266
活着	-15267
芝麻	-15268
集市	-15269
商品的	-15270
中国电影	-15271
▁蔡	-15272
南极	-15273
尚可	-15274
急于	-15275
管家	-15276
阳台	-15277
也同样	-15278
所高校	-15279
等板块	-15280
军事行动	-15281
融资成本	-15282
领先地位	-15283
经济高质量发展	-15284
她就	-15285
接手	-15286
申花	-15287
靠谱	-15288
▁武汉	-15289
为促进	-15290
多款	-15291
馆长	-15292
不喜欢	-15293
将超过	-15294
▁钱	-15295
大都	-15296
战中	-15297
病虫害	-15298
重要的作用	-15299
一户	-15300
七百	-15301
密云	-15302
抢抓	-15303
滚动	-15304
升级为	-15305
落实到	-15306
中国证券	-15307
由此可见	-15308
的高质量	-15309
已与	-15310
零跑	-15311
▁印度	-15312
▁没有	-15313
其他的	-15314
显著提升	-15315
六月	-15316
再说	-15317
的状况	-15318
信息共享	-15319
中央政治局	-15320
工作的通知	-15321
北风	-15322
念头	-15323
提价	-15324
快递员	-15325
水电站	-15326
的范围	-15327
世界纪录	-15328
实施意见	-15329
直播电商	-15330
不实	-15331
右侧	-15332
失衡	-15333
巡察	-15334
离家	-15335
飞速	-15336
充分肯定	-15337
劳动模范	-15338
建议关注	-15339
很有可能	-15340
投资收益	-15341
▁哈	-15342
之争	-15343
时而	-15344
的陈	-15345
也逐渐	-15346
重污染	-15347
提起诉讼	-15348
冲高	-15349
卡通	-15350
紧跟	-15351
表姐	-15352
遇见	-15353
上升至	-15354
的危险	-15355
营收为	-15356
一出	-15357
摇号	-15358
的她	-15359
考评	-15360
抑郁症	-15361
中国大陆	-15362
主持召开	-15363
八项规定	-15364
股权激励	-15365
nb	-15366
两点	-15367
差点	-15368
药材	-15369
工作方案	-15370
有力支撑	-15371
电子产品	-15372
万象	-15373
揽子	-15374
胶囊	-15375
在疫情	-15376
完全是	-15377
比较多	-15378
已经连续	-15379
受骗	-15380
固体	-15381
描写	-15382
湖泊	-15383
落脚	-15384
解散	-15385
车门	-15386
和教育	-15387
不少网友	-15388
具体情况	-15389
武器装备	-15390
每个人的	-15391
EO	-15392
洋溢	-15393
超大	-15394
金龙	-15395
分钟的	-15396
坚持把	-15397
不利影响	-15398
立案调查	-15399
四五	-15400
字样	-15401
有中	-15402
紧扣	-15403
对相关	-15404
说明了	-15405
保持稳定	-15406
创业公司	-15407
科技企业	-15408
在某	-15409
扬子	-15410
人民调解	-15411
绿色金融	-15412
最优	-15413
老伴	-15414
颇具	-15415
工作时	-15416
接地气	-15417
责任感	-15418
市委常委	-15419
让消费者	-15420
协力	-15421
瘫痪	-15422
记者的	-15423
这家公司	-15424
刻苦	-15425
千家	-15426
河市	-15427
班级	-15428
疲惫	-15429
诉你	-15430
下降到	-15431
和夫人	-15432
记者提问	-15433
销售人员	-15434
与他	-15435
伯克	-15436
在各	-15437
宣誓	-15438
演进	-15439
▁很多	-15440
一个小	-15441
▁如果说	-15442
建设银行	-15443
▁莫	-15444
严惩	-15445
全队	-15446
选出	-15447
中国区	-15448
出生的	-15449
恐怖主义	-15450
部门联合	-15451
加装	-15452
细腻	-15453
赶来	-15454
国家重点	-15455
尼日利亚	-15456
BD	-15457
后将	-15458
拥军	-15459
稳住	-15460
绑定	-15461
邮票	-15462
第三代	-15463
赛场上	-15464
不打	-15465
两场	-15466
倒在	-15467
农具	-15468
预料	-15469
这几天	-15470
协调发展	-15471
强制执行	-15472
不给	-15473
五项	-15474
克的	-15475
编织	-15476
靠前	-15477
ies	-15478
德意志	-15479
黄金坑	-15480
中国游客	-15481
▁又	-15482
交汇	-15483
出栏	-15484
口服	-15485
后又	-15486
戒毒	-15487
振华	-15488
煤气	-15489
▁走进	-15490
十四届	-15491
万美元的	-15492
产品价格	-15493
多元化的	-15494
技能培训	-15495
▁武	-15496
东道	-15497
接送	-15498
提出要	-15499
▁**[	-15500
中国公民	-15501
中心城区	-15502
伊始	-15503
建于	-15504
挂在	-15505
▁行业	-15506
不过是	-15507
有的是	-15508
生态圈	-15509
转基因	-15510
居民消费	-15511
违法所得	-15512
全面建成小康社会	-15513
▁百	-15514
世贸	-15515
侥幸	-15516
民族解放	-15517
今年一季度	-15518
一新	-15519
渐进	-15520
联运	-15521
选用	-15522
和政治	-15523
斯大林	-15524
这两年	-15525
七成	-15526
受邀	-15527
无证	-15528
的爱	-15529
▁参加	-15530
在公司	-15531
不断创新	-15532
同日	-15533
并列	-15534
抗震	-15535
电量	-15536
控股子公司	-15537
NO	-15538
乡土	-15539
快的	-15540
Rob	-15541
企业与	-15542
排列三第	-15543
现在已经	-15544
BP	-15545
▁卡	-15546
中科	-15547
冰冰	-15548
忍受	-15549
申诉	-15550
十二五	-15551
我一直	-15552
空间的	-15553
基础研究	-15554
均匀	-15555
年里	-15556
股息	-15557
身价	-15558
塔利班	-15559
制剂	-15560
向他	-15561
向其	-15562
散文	-15563
替换	-15564
荔枝	-15565
遵义	-15566
预选	-15567
NFT	-15568
开始在	-15569
政策支持	-15570
争执	-15571
抢购	-15572
欠薪	-15573
营利	-15574
▁新疆	-15575
接班	-15576
保障和	-15577
勘查	-15578
曲折	-15579
漫步	-15580
谁能	-15581
金的	-15582
到中国	-15583
是比较	-15584
深入人心	-15585
口头	-15586
很强	-15587
旧址	-15588
者们	-15589
能手	-15590
依法依规	-15591
干部群众	-15592
城投	-15593
奖章	-15594
张艺	-15595
那边	-15596
防水	-15597
在全省	-15598
投资项目	-15599
报告指出	-15600
金砖国家	-15601
高峰论坛	-15602
低谷	-15603
对决	-15604
整天	-15605
ths	-15606
▁习近平	-15607
之于	-15608
折合	-15609
每吨	-15610
贿赂	-15611
逃生	-15612
中介机构	-15613
可以帮助	-15614
这段时间	-15615
公告期满后	-15616
发光	-15617
私自	-15618
南朝鲜	-15619
和精神	-15620
对市场	-15621
IA	-15622
▁双	-15623
在小	-15624
机油	-15625
路过	-15626
同事们	-15627
的老人	-15628
交友	-15629
交锋	-15630
开封	-15631
清新	-15632
焦煤	-15633
锈钢	-15634
可口可乐	-15635
万千	-15636
会将	-15637
口的	-15638
浮动	-15639
绿灯	-15640
供不应	-15641
学院的	-15642
卢布	-15643
骁龙	-15644
张女士	-15645
固态	-15646
相声	-15647
越发	-15648
阻挠	-15649
很高兴	-15650
耶夫	-15651
交易量	-15652
审判庭	-15653
并且在	-15654
调查结果	-15655
犹太	-15656
献策	-15657
默契	-15658
级别的	-15659
都必须	-15660
中国人的	-15661
最高水平	-15662
经营业绩	-15663
风险隐患	-15664
oy	-15665
报社	-15666
生于	-15667
除外	-15668
顺风	-15669
▁第五	-15670
使我们	-15671
的人工智能	-15672
之多	-15673
分泌	-15674
时就	-15675
闻名	-15676
最前沿	-15677
人脸识别	-15678
平行	-15679
果实	-15680
群里	-15681
葫芦	-15682
高院	-15683
ran	-15684
告诉他	-15685
总额为	-15686
恢复了	-15687
手机的	-15688
预计到	-15689
生产能力	-15690
介石	-15691
寄托	-15692
特拉	-15693
人民和	-15694
铁路局	-15695
供不应求	-15696
余件	-15697
光线	-15698
制成	-15699
解难	-15700
黑人	-15701
亿人次	-15702
好声音	-15703
构建了	-15704
相适应	-15705
HO	-15706
▁吕	-15707
▁继	-15708
号为	-15709
桃花	-15710
eal	-15711
农业银行	-15712
文化自信	-15713
自主创新	-15714
北路	-15715
布伦	-15716
杨浦	-15717
藏族	-15718
顺德	-15719
动车组	-15720
科学与	-15721
应对气候变化	-15722
▁贾	-15723
有无	-15724
盎司	-15725
议长	-15726
量身	-15727
钢筋	-15728
全球的	-15729
对社会	-15730
少年的	-15731
全生命周期	-15732
去化	-15733
已由	-15734
患儿	-15735
旁的	-15736
供应量	-15737
来实现	-15738
的积极性	-15739
房地产行业	-15740
美好生活的	-15741
越南民主共和国	-15742
扎堆	-15743
敬畏	-15744
页岩	-15745
公司对	-15746
也是一种	-15747
南斯拉夫	-15748
专卖	-15749
个大	-15750
勒索	-15751
因病	-15752
换乘	-15753
以确保	-15754
时左右	-15755
这些都	-15756
服务水平	-15757
分组	-15758
强硬	-15759
内部的	-15760
命名为	-15761
学院院长	-15762
中枢	-15763
丰硕	-15764
和王	-15765
徐某	-15766
悬崖	-15767
解纷	-15768
追加	-15769
了一定的	-15770
八大	-15771
原型	-15772
采写	-15773
名学生	-15774
奖学金	-15775
的运动	-15776
相通	-15777
面部	-15778
劳动争议	-15779
发展空间	-15780
因子	-15781
排球	-15782
谱写	-15783
加利亚	-15784
强调了	-15785
武装力量	-15786
ud	-15787
有为	-15788
黎明	-15789
电视机	-15790
西南部	-15791
伤员	-15792
应聘	-15793
交易额	-15794
取得新	-15795
披露了	-15796
进一步的	-15797
▁九	-15798
一刀	-15799
使之	-15800
卖了	-15801
大河	-15802
是的	-15803
极氪	-15804
洗澡	-15805
分析了	-15806
均超过	-15807
的人士	-15808
RCEP	-15809
发展阶段	-15810
大幅上涨	-15811
乡村振兴战略	-15812
审结	-15813
找出	-15814
沿江	-15815
混动	-15816
蘑菇	-15817
代表了	-15818
在他们	-15819
大规模的	-15820
推广应用	-15821
MH	-15822
圈子	-15823
西门	-15824
跳舞	-15825
党总支	-15826
枚金牌	-15827
生命力	-15828
星级	-15829
一把手	-15830
办公楼	-15831
经营权	-15832
利空	-15833
▁正如	-15834
的胜利	-15835
预计在	-15836
实现净利润	-15837
呵护	-15838
送货	-15839
体会到	-15840
参加过	-15841
性疾病	-15842
是实现	-15843
来解决	-15844
ment	-15845
执行干警	-15846
负责人介绍	-15847
包头	-15848
化为	-15849
向着	-15850
夏日	-15851
总之	-15852
贫困县	-15853
非常有	-15854
科技进步	-15855
中游	-15856
各式	-15857
山海	-15858
耗材	-15859
肠道	-15860
财税	-15861
中概股	-15862
全运会	-15863
日举行的	-15864
%~	-15865
建功	-15866
通办	-15867
阵线	-15868
以及在	-15869
制造的	-15870
化管理	-15871
DS	-15872
LG	-15873
字的	-15874
繁华	-15875
要走	-15876
连云	-15877
对我国	-15878
年代初	-15879
▁据香港	-15880
投稿	-15881
报废	-15882
挫折	-15883
决定书	-15884
面包车	-15885
南县	-15886
和非	-15887
深海	-15888
眼的	-15889
司法部	-15890
客流量	-15891
建立一个	-15892
斯里兰卡	-15893
兼任	-15894
如果我们	-15895
资产配置	-15896
▁艾	-15897
接纳	-15898
保障了	-15899
影视剧	-15900
饿了么	-15901
义勇	-15902
会诊	-15903
每到	-15904
起身	-15905
氪获悉	-15906
互利共赢	-15907
年份	-15908
下降至	-15909
夏令营	-15910
上新台阶	-15911
交易市场	-15912
国际金融	-15913
生产建设	-15914
经济形势	-15915
非洲国家	-15916
深入学习贯彻	-15917
一辈	-15918
美德	-15919
中国是	-15920
支球队	-15921
股份制	-15922
通过与	-15923
世纪经济	-15924
社会力量	-15925
比上年同期	-15926
侮辱	-15927
工期	-15928
执着	-15929
超前	-15930
的成长	-15931
签订的	-15932
南越	-15933
印章	-15934
滑冰	-15935
而从	-15936
跑了	-15937
展览会	-15938
里面的	-15939
▁这样的	-15940
生活垃圾	-15941
▁https	-15942
侦办	-15943
实话	-15944
自首	-15945
轮流	-15946
在基层	-15947
的情绪	-15948
的手段	-15949
▁雷	-15950
使人	-15951
老区	-15952
领略	-15953
第六届	-15954
内亚	-15955
建党	-15956
火了	-15957
▁项目	-15958
保障房	-15959
信息和	-15960
同志的	-15961
苏维埃	-15962
相关人士	-15963
不肯	-15964
加尔	-15965
房家	-15966
文娱	-15967
深感	-15968
科尔	-15969
做一些	-15970
富士康	-15971
务实合作	-15972
中对	-15973
六成	-15974
疗效	-15975
文化创意	-15976
深入了解	-15977
见习记者	-15978
譬如	-15979
出现过	-15980
由国家	-15981
等城市	-15982
等平台	-15983
此次活动	-15984
同花顺财经	-15985
现代化建设	-15986
丽水	-15987
富民	-15988
心动	-15989
星空	-15990
白领	-15991
多功能	-15992
带头人	-15993
的体验	-15994
进行调整	-15995
产业发展的	-15996
叙述	-15997
并存	-15998
打动	-15999
敬业	-16000
来华	-16001
沙滩	-16002
直销	-16003
在社会	-16004
战士们	-16005
电动化	-16006
以案	-16007
甜蜜	-16008
视力	-16009
质保	-16010
雇主	-16011
飞往	-16012
显示屏	-16013
与时俱进	-16014
在比赛中	-16015
一盘	-16016
其对	-16017
船上	-16018
▁江苏	-16019
金融支持	-16020
,(	-16021
首例	-16022
一点点	-16023
是基于	-16024
各级党委	-16025
接待游客	-16026
免责	-16027
四次	-16028
在为	-16029
均值	-16030
我看	-16031
押金	-16032
测绘	-16033
辛勤	-16034
防晒	-16035
公司于	-16036
甚至在	-16037
着眼于	-16038
保时	-16039
湖州	-16040
红楼	-16041
跟他	-16042
并根据	-16043
大军	-16044
成龙	-16045
政绩	-16046
海量	-16047
ust	-16048
你们的	-16049
联合体	-16050
拉开帷幕	-16051
分拆	-16052
失利	-16053
所言	-16054
杰克	-16055
汇款	-16056
文化生活	-16057
GO	-16058
个村	-16059
大牌	-16060
祭祀	-16061
足了	-16062
必要性	-16063
现实中	-16064
一丝	-16065
余元	-16066
呼应	-16067
安定	-16068
新款	-16069
维斯	-16070
养殖场	-16071
各个环节	-16072
低的	-16073
林区	-16074
订购	-16075
销毁	-16076
不好的	-16077
句话说	-16078
话语权	-16079
欧洲央行	-16080
西部地区	-16081
资金支持	-16082
获取更多机会	-16083
不为	-16084
专政	-16085
唤醒	-16086
无穷	-16087
此文	-16088
繁育	-16089
son	-16090
准备好	-16091
顺利完成	-16092
响了	-16093
小刚	-16094
店员	-16095
新颖	-16096
李佳琦	-16097
的步伐	-16098
讨论了	-16099
▁人	-16100
俄军	-16101
大巴	-16102
警情	-16103
家长们	-16104
控制的	-16105
为进一步	-16106
心理咨询	-16107
生态修复	-16108
半月	-16109
屡屡	-16110
平壤	-16111
涉外	-16112
ood	-16113
卫生间	-16114
孟加拉	-16115
有超过	-16116
的市民	-16117
金山银	-16118
信息公开	-16119
可以直接	-16120
更加注重	-16121
并肩	-16122
日止	-16123
林场	-16124
采矿	-16125
等手段	-16126
一如既往	-16127
美联储加息	-16128
供给侧结构性改革	-16129
一艘	-16130
▁以下	-16131
也有所	-16132
依法治	-16133
先进技术	-16134
创新成果	-16135
销售价格	-16136
军营	-16137
唯物	-16138
还称	-16139
这几	-16140
关心的	-16141
司令部	-16142
肺炎疫情	-16143
再去	-16144
季后	-16145
旅程	-16146
只剩下	-16147
大家庭	-16148
蒋介石	-16149
较去年	-16150
印象深刻	-16151
▁陆	-16152
修养	-16153
安抚	-16154
问世	-16155
骑士	-16156
中共中央政治局	-16157
为国	-16158
底色	-16159
巧克力	-16160
财联社	-16161
可以实现	-16162
工友	-16163
归根	-16164
或有	-16165
费的	-16166
辗转	-16167
的建筑	-16168
规范性	-16169
代表性的	-16170
着力打造	-16171
TI	-16172
一笑	-16173
恰好	-16174
捕捞	-16175
植被	-16176
沦为	-16177
剧本杀	-16178
佩戴口罩	-16179
保加利亚	-16180
▁卢	-16181
低开	-16182
立马	-16183
黄山	-16184
在产品	-16185
的优秀	-16186
的创作	-16187
通报称	-16188
市场情绪	-16189
团聚	-16190
早晚	-16191
服役	-16192
▁四川	-16193
但最终	-16194
和平的	-16195
等政策	-16196
记者会	-16197
主力合约	-16198
国土资源	-16199
带你掘金	-16200
纠纷一案	-16201
销售费用	-16202
全面深化改革	-16203
过户	-16204
金字	-16205
强降水	-16206
十大金股送给你	-16207
中转	-16208
华说	-16209
取向	-16210
国强	-16211
桌上	-16212
浙商	-16213
课后	-16214
面孔	-16215
银行间	-16216
等因素影响	-16217
云集	-16218
凉山	-16219
评比	-16220
乡亲们	-16221
和应用	-16222
心理学	-16223
等在内的	-16224
三代	-16225
山体	-16226
监制	-16227
送至	-16228
从一个	-16229
我还是	-16230
框架协议	-16231
个人养老金	-16232
双方当事人	-16233
再来	-16234
时装	-16235
党工委	-16236
岁以下	-16237
科主任	-16238
共同推动	-16239
定点医院	-16240
执行工作	-16241
界面新闻	-16242
世纪经济报道	-16243
并被	-16244
极高	-16245
发展与	-16246
的动作	-16247
公司股价	-16248
食品饮料	-16249
国债收益率	-16250
两制	-16251
中韩	-16252
地板	-16253
纵观	-16254
藏着	-16255
青浦	-16256
方式的	-16257
目前正	-16258
重点区域	-16259
差不	-16260
接续	-16261
迫切需要	-16262
各种各样的	-16263
ep	-16264
尖锐	-16265
岭南	-16266
承德	-16267
按揭	-16268
摩洛	-16269
▁经济	-16270
▁谈及	-16271
在此次	-16272
干细胞	-16273
提供给	-16274
站起来	-16275
信中	-16276
丰台区	-16277
使他们	-16278
军队的	-16279
彰显了	-16280
带动作用	-16281
老旧小区	-16282
▁公开资料显示	-16283
匮乏	-16284
堵点	-16285
欢呼	-16286
在生产	-16287
总统普京	-16288
环比上涨	-16289
▁a	-16290
勉强	-16291
容器	-16292
拉着	-16293
家门店	-16294
安全问题	-16295
▁案	-16296
上加	-16297
在售	-16298
瓦尔	-16299
道具	-16300
美元的	-16301
该产品	-16302
开展工作	-16303
总股本的	-16304
设施建设	-16305
个人所得税	-16306
偏见	-16307
军备	-16308
军舰	-16309
小巷	-16310
散步	-16311
明说	-16312
rom	-16313
他们说	-16314
绝不	-16315
在这次	-16316
第五届	-16317
无论如何	-16318
来自中国	-16319
道路交通	-16320
前端	-16321
在同	-16322
山镇	-16323
数目	-16324
李墨	-16325
活性	-16326
不仅能	-16327
会成为	-16328
化发展	-16329
还是有	-16330
可以根据	-16331
教育基地	-16332
消息人士	-16333
细分领域	-16334
数以	-16335
黑名单	-16336
方方面面	-16337
不来	-16338
两队	-16339
宁市	-16340
提拔	-16341
更名为	-16342
添加剂	-16343
的领导	-16344
他们认为	-16345
优雅	-16346
后就	-16347
破发	-16348
获客	-16349
血脉	-16350
迈入	-16351
门将	-16352
太多的	-16353
负增长	-16354
产能过剩	-16355
教育资源	-16356
已久	-16357
拼命	-16358
案的	-16359
老鼠	-16360
订立	-16361
ube	-16362
保时捷	-16363
观点或	-16364
副委员长	-16365
这是我们	-16366
遗憾的是	-16367
行业的发展	-16368
奔波	-16369
小店	-16370
紧凑	-16371
远方	-16372
确实是	-16373
遭到了	-16374
各方面的	-16375
头部企业	-16376
汽车零部件	-16377
劝说	-16378
大姐	-16379
奋发	-16380
营地	-16381
迎合	-16382
地铁站	-16383
李墨轩	-16384
▁他表示	-16385
实施细则	-16386
▁具体来看	-16387
作坊	-16388
废水	-16389
服贸	-16390
解决好	-16391
海关总署	-16392
从容	-16393
侨务	-16394
巴以	-16395
油脂	-16396
惊人的	-16397
的战斗	-16398
▁关注同花顺财经	-16399
当我	-16400
撤回	-16401
束缚	-16402
此项	-16403
浓浓	-16404
激素	-16405
▁接下来	-16406
贫下中农	-16407
上都	-16408
五四	-16409
年仅	-16410
挂着	-16411
网吧	-16412
的职业	-16413
任何时候	-16414
信息服务	-16415
这是因为	-16416
曾有	-16417
到底是	-16418
在致辞	-16419
消费者在	-16420
千人	-16421
奈雪	-16422
村村	-16423
社工	-16424
给付	-16425
赛程	-16426
遥远	-16427
And	-16428
他们就	-16429
新消费	-16430
职业学院	-16431
分校	-16432
初始	-16433
卡片	-16434
左手	-16435
成渝	-16436
立方	-16437
和建设	-16438
有问题	-16439
的味道	-16440
的特殊	-16441
的运营	-16442
网格员	-16443
为题	-16444
之所	-16445
吃苦	-16446
唐代	-16447
忧虑	-16448
登载	-16449
联储	-16450
言语	-16451
谁来	-16452
费等	-16453
不属于	-16454
发生过	-16455
很明显	-16456
友好关系	-16457
万岁	-16458
尾盘	-16459
被查	-16460
越秀	-16461
附件	-16462
和消费	-16463
的父母	-16464
为中心的	-16465
救援人员	-16466
白俄罗斯	-16467
余年	-16468
机上	-16469
盛大	-16470
门窗	-16471
阳区	-16472
了一名	-16473
和日本	-16474
王女士	-16475
Wi	-16476
考证	-16477
脑袋	-16478
今年是	-16479
农家乐	-16480
戴口罩	-16481
智慧和	-16482
驱动力	-16483
在自己的	-16484
网络平台	-16485
却又	-16486
持有人	-16487
通证券	-16488
不断深化	-16489
收费标准	-16490
精准扶贫	-16491
Netflix	-16492
加达	-16493
石窟	-16494
劳动人民	-16495
成才	-16496
数值	-16497
纵向	-16498
诚实	-16499
院内	-16500
保护的	-16501
听取了	-16502
的第二	-16503
手机厂商	-16504
技术服务	-16505
下放	-16506
叮嘱	-16507
并就	-16508
弥漫	-16509
海默	-16510
胜负	-16511
家上市公司	-16512
党性	-16513
整套	-16514
驻足	-16515
可以将	-16516
争先	-16517
方正	-16518
成本和	-16519
一码	-16520
峡谷	-16521
副厅长	-16522
向法院	-16523
长春市	-16524
成为一名	-16525
▁特	-16526
坐着	-16527
气味	-16528
分享到	-16529
新零售	-16530
的本质	-16531
的重要原因	-16532
平面	-16533
民党	-16534
▁原来	-16535
均价为	-16536
联合声明	-16537
kg	-16538
上次	-16539
上阵	-16540
来往	-16541
白菜	-16542
精华	-16543
▁南京	-16544
但这些	-16545
所有权	-16546
常住人口	-16547
停靠	-16548
南站	-16549
开具	-16550
绘制	-16551
问他	-16552
切入点	-16553
二线城市	-16554
地理位置	-16555
教育教学	-16556
满怀	-16557
与传统	-16558
中东部	-16559
几内亚	-16560
市场在	-16561
当我们	-16562
李女士	-16563
几乎所有	-16564
加勒	-16565
大病	-16566
选派	-16567
的生态	-16568
数字货币	-16569
检测结果	-16570
马克思列宁	-16571
内容仅供参考	-16572
客群	-16573
牙齿	-16574
自力	-16575
莱德	-16576
行径	-16577
合理性	-16578
多公里	-16579
来看看	-16580
comp	-16581
中国足协	-16582
经济增速	-16583
▁姜	-16584
万头	-16585
三江	-16586
千伏	-16587
晨报	-16588
贫穷	-16589
尽全力	-16590
建成了	-16591
摩洛哥	-16592
等不同	-16593
党风廉政	-16594
国家能源	-16595
活跃用户	-16596
直接影响	-16597
vs	-16598
剥离	-16599
左侧	-16600
中心和	-16601
企业管理	-16602
本场比赛	-16603
事的	-16604
称作	-16605
▁一九	-16606
名单中	-16607
药监局	-16608
行动中	-16609
就是这样	-16610
逐渐成为	-16611
▁按	-16612
城河	-16613
就职	-16614
潜能	-16615
进货	-16616
Web	-16617
创造力	-16618
合肥市	-16619
日白天	-16620
知道了	-16621
都应该	-16622
努力实现	-16623
在工作	-16624
组织实施	-16625
银行贷款	-16626
二三	-16627
元宵	-16628
党派	-16629
刑侦	-16630
惩治	-16631
通勤	-16632
▁比赛	-16633
上来看	-16634
服务区	-16635
不俗	-16636
中式	-16637
利民	-16638
吃喝	-16639
否决	-16640
嫦娥	-16641
干了	-16642
平日	-16643
相识	-16644
单季度	-16645
环保局	-16646
的最佳	-16647
社科院	-16648
长期来看	-16649
SD	-16650
走近	-16651
▁点击	-16652
居民区	-16653
甚至还	-16654
覆盖了	-16655
auto	-16656
工伤保险	-16657
本期看好	-16658
中建	-16659
全心	-16660
厨师	-16661
商的	-16662
异动	-16663
新版	-16664
通航	-16665
个乡镇	-16666
所以我	-16667
持续深化	-16668
me	-16669
储量	-16670
出征	-16671
跑道	-16672
门头	-16673
教科文	-16674
ence	-16675
开发利用	-16676
社会科学	-16677
摘要	-16678
洪涝	-16679
决定的	-16680
产线	-16681
均是	-16682
死的	-16683
看守	-16684
除夕	-16685
雕刻	-16686
仍存在	-16687
是否能	-16688
让用户	-16689
讲话中	-16690
室里	-16691
就说	-16692
民调	-16693
材料的	-16694
充满信心	-16695
存款利率	-16696
的大部分	-16697
不败	-16698
入党	-16699
嫌犯	-16700
武力	-16701
特的	-16702
满意的	-16703
中央财政	-16704
工会组织	-16705
高新技术企业	-16706
会商	-16707
布朗	-16708
更改	-16709
精益	-16710
货架	-16711
还好	-16712
做好了	-16713
地方的	-16714
情况看	-16715
指明了	-16716
等症状	-16717
不计	-16718
制动	-16719
换代	-16720
接管	-16721
稳居	-16722
遗迹	-16723
不一定	-16724
学校和	-16725
发生一起	-16726
铁路部门	-16727
ty	-16728
私下	-16729
站上	-16730
网贷	-16731
过半	-16732
今天在	-16733
延续了	-16734
农垦	-16735
天赋	-16736
寿险	-16737
快充	-16738
汇丰	-16739
的古	-16740
索要	-16741
联会	-16742
▁杭州	-16743
也很难	-16744
以后的	-16745
副所长	-16746
司法所	-16747
常务会议	-16748
所以我们	-16749
石家庄市	-16750
回补	-16751
心愿	-16752
悬念	-16753
明清	-16754
高科	-16755
但也有	-16756
广西壮族自治区	-16757
将要	-16758
常用	-16759
扰动	-16760
采纳	-16761
麦当	-16762
之类的	-16763
分钟内	-16764
教练员	-16765
一味	-16766
上岸	-16767
印花	-16768
同济	-16769
膳食	-16770
路况	-16771
往往会	-16772
的规模	-16773
那样的	-16774
原油期货	-16775
希望能够	-16776
公司董事长	-16777
市场占有率	-16778
派人	-16779
火花	-16780
相亲	-16781
银行账户	-16782
他被	-16783
安东	-16784
有毒	-16785
李晓	-16786
果蔬	-16787
解决问题的	-16788
八成	-16789
姿势	-16790
支教	-16791
档期	-16792
领头	-16793
也只有	-16794
网络游戏	-16795
文物局	-16796
优势互补	-16797
合同纠纷一案	-16798
▁应	-16799
巴斯	-16800
拉里	-16801
机等	-16802
棕榈	-16803
法则	-16804
终极	-16805
为广大	-16806
联系我们	-16807
低头	-16808
撬动	-16809
舟山	-16810
低风险	-16811
年之后	-16812
还通过	-16813
镇政府	-16814
流行病学	-16815
上当	-16816
也说	-16817
居多	-16818
志强	-16819
文斌	-16820
清查	-16821
演出的	-16822
的智能	-16823
国泰君安	-16824
贯彻执行	-16825
OK	-16826
切断	-16827
打折	-16828
清扫	-16829
发挥好	-16830
在印度	-16831
地表示	-16832
还是比较	-16833
监督管理总局	-16834
高级人民法院	-16835
(-	-16836
大体	-16837
家常	-16838
对付	-16839
我能	-16840
目睹	-16841
主要由	-16842
持续性	-16843
遭遇了	-16844
战略性新兴产业	-16845
嘴里	-16846
审讯	-16847
征服	-16848
报了	-16849
稿件	-16850
新常态	-16851
管理等	-16852
组合拳	-16853
通胀率	-16854
残留	-16855
蒙牛	-16856
触摸	-16857
评判	-16858
遗留	-16859
如果在	-16860
数量为	-16861
伊斯兰国	-16862
法律知识	-16863
紧密结合	-16864
老年人的	-16865
生产和销售	-16866
▁据新华社北京	-16867
▁易	-16868
下雨	-16869
主题为	-16870
全天候	-16871
数据和	-16872
民政部	-16873
被认为	-16874
预警信号	-16875
核酸检测结果	-16876
以南	-16877
坍塌	-16878
平的	-16879
其行为	-16880
向本院	-16881
来不及	-16882
要知道	-16883
都市圈	-16884
昆山	-16885
赛车	-16886
▁另一	-16887
活跃度	-16888
社会发展	-16889
管理规定	-16890
资源共享	-16891
争吵	-16892
亲手	-16893
防护服	-16894
为中	-16895
克罗	-16896
声中	-16897
换取	-16898
队以	-16899
雪山	-16900
企业对	-16901
做准备	-16902
就成了	-16903
严格遵守	-16904
出局	-16905
深水	-16906
禀赋	-16907
秋收	-16908
袋子	-16909
龙虎	-16910
事发后	-16911
在成都	-16912
薄弱环节	-16913
生态环境部	-16914
你好	-16915
扑灭	-16916
和群众	-16917
路线图	-16918
写信	-16919
某一	-16920
量刑	-16921
马丁	-16922
为保障	-16923
宁波市	-16924
成长的	-16925
的案例	-16926
零距离	-16927
▁联合国	-16928
公司业绩	-16929
行政拘留	-16930
深入贯彻落实	-16931
MP	-16932
襄阳	-16933
▁SN	-16934
▁河南	-16935
但因为	-16936
出发点	-16937
采取的	-16938
对记者表示	-16939
菁菁	-16940
顺势	-16941
和我们	-16942
青报记者	-16943
喇叭	-16944
宝山	-16945
日说	-16946
限价	-16947
价格在	-16948
告诉你	-16949
已建成	-16950
最高法院	-16951
▁据外媒报道	-16952
《“	-16953
主创	-16954
外事	-16955
撰文	-16956
长寿	-16957
包含了	-16958
的股价	-16959
非常重要的	-16960
就想	-16961
是把	-16962
脚踏	-16963
代表的	-16964
在进行	-16965
昆明市	-16966
路街道	-16967
这种方式	-16968
会面	-16969
报收	-16970
答疑	-16971
聘用	-16972
遍地	-16973
顺延	-16974
领队	-16975
Mac	-16976
事件中	-16977
崭新的	-16978
支付的	-16979
深度合作	-16980
问题导向	-16981
三成	-16982
个小	-16983
裁军	-16984
两方面	-16985
如是说	-16986
连云港	-16987
在互联网	-16988
综合考虑	-16989
负责人说	-16990
他用	-16991
水体	-16992
洛夫	-16993
海里	-16994
温柔	-16995
烧钱	-16996
环绕	-16997
积淀	-16998
衷心	-16999
路易	-17000
零下	-17001
中国女排	-17002
今年年初	-17003
会展中心	-17004
越南人民	-17005
会更	-17006
背着	-17007
读了	-17008
身子	-17009
总资产	-17010
行动方案	-17011
发烧	-17012
徐汇	-17013
政企	-17014
象棋	-17015
预判	-17016
发现有	-17017
强制性	-17018
而且还	-17019
这表明	-17020
DC	-17021
制服	-17022
加价	-17023
哔哩	-17024
当家	-17025
愉悦	-17026
斗志	-17027
莫言	-17028
装载	-17029
顺着	-17030
▁所谓	-17031
他没有	-17032
中央企业	-17033
党的建设	-17034
国庆假期	-17035
社会资本	-17036
▁各	-17037
妇幼	-17038
扫黑	-17039
菜鸟	-17040
进博	-17041
通了	-17042
静静	-17043
在国外	-17044
支原体	-17045
月底前	-17046
稳中有	-17047
依法治国	-17048
集团股份有限公司	-17049
二楼	-17050
全能	-17051
我又	-17052
我把	-17053
相近	-17054
车市	-17055
不能再	-17056
病患者	-17057
的交通	-17058
很多时候	-17059
环境卫生	-17060
西藏自治区	-17061
入库	-17062
芝加	-17063
ics	-17064
探测器	-17065
根据地	-17066
的讨论	-17067
监护人	-17068
累计报告	-17069
定额	-17070
并重	-17071
盈亏	-17072
菜品	-17073
预赛	-17074
ata	-17075
副司长	-17076
投资方	-17077
的最后	-17078
芝加哥	-17079
本身就是	-17080
▁亿	-17081
个数	-17082
农耕	-17083
好几	-17084
杰伦	-17085
洗钱	-17086
养殖户	-17087
不由	-17088
产妇	-17089
场内	-17090
增发	-17091
天价	-17092
格拉	-17093
精湛	-17094
近乎	-17095
运动中	-17096
新增确诊病例	-17097
科技成果转化	-17098
后被	-17099
来之	-17100
校对	-17101
波澜	-17102
续约	-17103
首场	-17104
创造出	-17105
增长至	-17106
大多是	-17107
驻中国	-17108
对其进行	-17109
MW	-17110
mg	-17111
濒危	-17112
物浦	-17113
生根	-17114
老实	-17115
更强的	-17116
雅加达	-17117
村党支部书记	-17118
你想	-17119
双赢	-17120
淡水	-17121
细心	-17122
规程	-17123
奇偶比	-17124
完美的	-17125
就应该	-17126
这三个	-17127
重要性	-17128
工作中的	-17129
上架	-17130
参选	-17131
复盘	-17132
疑难	-17133
中国对	-17134
新京报	-17135
期开出	-17136
仅用	-17137
战俘	-17138
无忧	-17139
蚌埠	-17140
酸奶	-17141
ens	-17142
▁此后	-17143
将自己	-17144
共享单车	-17145
殖民主义	-17146
厚度	-17147
大佬	-17148
导入	-17149
拿马	-17150
海的	-17151
满载	-17152
种粮	-17153
必不可	-17154
之光	-17155
动用	-17156
外滩	-17157
结盟	-17158
舌尖	-17159
见下	-17160
分析和	-17161
选择的	-17162
一方面是	-17163
发展方向	-17164
已经进入	-17165
重中之重	-17166
女单	-17167
某在	-17168
法兰	-17169
耗时	-17170
开工率	-17171
良性循环	-17172
财政收入	-17173
尽职	-17174
申领	-17175
一直到	-17176
也包括	-17177
产业和	-17178
商用车	-17179
辅导员	-17180
规模最大	-17181
地去	-17182
奶酪	-17183
学界	-17184
慎重	-17185
批示	-17186
矿区	-17187
黄钰	-17188
西城区	-17189
二线	-17190
意在	-17191
托育	-17192
破损	-17193
不作为	-17194
活动在	-17195
订单量	-17196
青年人	-17197
最高人民检察院	-17198
专程	-17199
伸出	-17200
红外	-17201
要多	-17202
独立董事	-17203
防范化解	-17204
市人民法院	-17205
山河	-17206
翅膀	-17207
雨量	-17208
干部的	-17209
不断加大	-17210
体育赛事	-17211
摩根大通	-17212
金融产品	-17213
造车新势力	-17214
取缔	-17215
实训	-17216
某部	-17217
沥青	-17218
喜爱的	-17219
开设了	-17220
属于自己的	-17221
全国政协委员	-17222
Th	-17223
本色	-17224
王晓	-17225
对此表示	-17226
有自己的	-17227
过去一年	-17228
高度关注	-17229
▁先	-17230
候车	-17231
化合	-17232
的国	-17233
进京	-17234
不影响	-17235
到一个	-17236
的联系	-17237
官方网站	-17238
将于今年	-17239
先进制造业	-17240
▁时	-17241
住的	-17242
闯入	-17243
作品中	-17244
加快推动	-17245
勘察	-17246
曼城	-17247
最先	-17248
此役	-17249
沉迷	-17250
涡轮	-17251
黑马	-17252
两年前	-17253
因为我	-17254
的习惯	-17255
都无法	-17256
万元左右	-17257
广播公司	-17258
目前国内	-17259
两国人民的	-17260
经济工作会议	-17261
三号	-17262
舆情	-17263
邮储	-17264
per	-17265
个省份	-17266
的氛围	-17267
资金额	-17268
最大程度	-17269
中兴	-17270
在做	-17271
独有	-17272
狭窄	-17273
阻断	-17274
进一步加大	-17275
一词	-17276
剪辑	-17277
发给	-17278
台商	-17279
派驻	-17280
聘任	-17281
私家车	-17282
专业知识	-17283
海岛	-17284
滚滚	-17285
的名	-17286
的茶	-17287
确权	-17288
任务是	-17289
可行的	-17290
市面上	-17291
收购了	-17292
新就业	-17293
透明度	-17294
总额的	-17295
方式和	-17296
分别达到	-17297
这个行业	-17298
重大战略	-17299
集团旗下	-17300
》;	-17301
办结	-17302
霍尔	-17303
李某某	-17304
父母的	-17305
还指出	-17306
换句话说	-17307
SM	-17308
入园	-17309
四项	-17310
迈出	-17311
利物浦	-17312
居住在	-17313
文学奖	-17314
的一生	-17315
的唯一	-17316
的统一	-17317
roid	-17318
两党	-17319
保全	-17320
准时	-17321
开赛	-17322
跨年	-17323
未来将	-17324
犯罪案件	-17325
降低成本	-17326
pe	-17327
厂区	-17328
女神	-17329
致远	-17330
的成果	-17331
选择在	-17332
▁欧	-17333
报告称	-17334
理解和	-17335
沪深两市	-17336
元现金红包	-17337
▁科	-17338
晚期	-17339
阶梯	-17340
来说是	-17341
马克龙	-17342
人民民主	-17343
合作项目	-17344
金融监管	-17345
长江经济带	-17346
ny	-17347
为本	-17348
共处	-17349
匠心	-17350
多天	-17351
子弟	-17352
蒸发	-17353
返程	-17354
都对	-17355
阻击	-17356
主要以	-17357
到医院	-17358
她们的	-17359
巡视员	-17360
甚至有	-17361
的侵略	-17362
强制措施	-17363
向北	-17364
往下	-17365
往事	-17366
配额	-17367
代表队	-17368
开发和	-17369
规定了	-17370
▁中国驻	-17371
制度建设	-17372
城市管理	-17373
成员单位	-17374
万一	-17375
女童	-17376
崇高	-17377
张文	-17378
派对	-17379
贝克	-17380
印发了	-17381
巡视组	-17382
急难愁	-17383
的大幅	-17384
南亚	-17385
境地	-17386
日新	-17387
明代	-17388
都与	-17389
以满足	-17390
的看法	-17391
的魅力	-17392
国际关系	-17393
施工现场	-17394
不同程度的	-17395
中被	-17396
冰城	-17397
展台	-17398
惊艳	-17399
我从	-17400
比前	-17401
看不	-17402
顿时	-17403
确定为	-17404
虽然在	-17405
生产成本	-17406
一楼	-17407
南开	-17408
复核	-17409
必备	-17410
Tech	-17411
虚拟现实	-17412
了吧	-17413
副业	-17414
客商	-17415
征战	-17416
拉近	-17417
欠款	-17418
而对	-17419
长制	-17420
只能在	-17421
哈马斯	-17422
恢复到	-17423
苹果公司	-17424
随处可见	-17425
全面从严治党	-17426
下场	-17427
分层	-17428
回访	-17429
建构	-17430
end	-17431
参议员	-17432
签约仪式	-17433
保温	-17434
劣势	-17435
只剩	-17436
榆林	-17437
民进党	-17438
称自己	-17439
关联交易	-17440
地表	-17441
大雪	-17442
清廉	-17443
网友们	-17444
范围的	-17445
要切实	-17446
世界各地	-17447
▁水	-17448
主攻	-17449
丽莎	-17450
擦亮	-17451
充足的	-17452
控制权	-17453
是人类	-17454
红色文化	-17455
多户	-17456
州长	-17457
成型	-17458
故居	-17459
能见	-17460
咖啡馆	-17461
日发表	-17462
有多大	-17463
级以上	-17464
先导	-17465
干的	-17466
收治	-17467
特困	-17468
老汉	-17469
补给	-17470
重现	-17471
世界冠军	-17472
另外一个	-17473
美债收益率	-17474
EP	-17475
全美	-17476
向西	-17477
小将	-17478
小雨	-17479
百家	-17480
还应	-17481
局限于	-17482
贵金属	-17483
一无	-17484
主旨	-17485
成名	-17486
有其	-17487
追责	-17488
变得更	-17489
Uber	-17490
健康管理	-17491
高温天气	-17492
下岗	-17493
半球	-17494
张大	-17495
情侣	-17496
按钮	-17497
蓝海	-17498
元以上	-17499
各级政府	-17500
一众	-17501
如需	-17502
政局	-17503
限售	-17504
依赖于	-17505
强对流	-17506
我们从	-17507
日公布	-17508
欧洲的	-17509
的独特	-17510
预计未来	-17511
并行	-17512
一件事	-17513
中下游	-17514
但同时	-17515
负责任	-17516
保姆	-17517
现住	-17518
关键是	-17519
制片人	-17520
前总统	-17521
问题进行	-17522
▁初	-17523
之行	-17524
护卫	-17525
纷呈	-17526
我可以	-17527
广泛开展	-17528
急难愁盼	-17529
市委副书记	-17530
朗诵	-17531
节的	-17532
那年	-17533
骆驼	-17534
大健康	-17535
条件和	-17536
文化和旅游部	-17537
两委	-17538
头痛	-17539
揭幕	-17540
网店	-17541
速滑	-17542
咨询服务	-17543
认真落实	-17544
了其	-17545
油耗	-17546
脱口	-17547
长得	-17548
最小的	-17549
每天都	-17550
的新闻	-17551
房地产业	-17552
la	-17553
回乡	-17554
探亲	-17555
做生意	-17556
久久	-17557
他不	-17558
兵力	-17559
热销	-17560
萌芽	-17561
造纸	-17562
饺子	-17563
有效期	-17564
公共安全	-17565
市场环境	-17566
注意事项	-17567
作曲	-17568
收缴	-17569
救生	-17570
泥石	-17571
讯飞	-17572
较上月	-17573
优良传统	-17574
刑警	-17575
心事	-17576
一九四	-17577
场景的	-17578
并提供	-17579
的态势	-17580
不得超过	-17581
高等学校	-17582
中国人民大学	-17583
一趟	-17584
冲绳	-17585
复印	-17586
讲了	-17587
词汇	-17588
问界	-17589
可转债	-17590
宅基地	-17591
产业转型升级	-17592
uc	-17593
临夏	-17594
京城	-17595
停电	-17596
库克	-17597
环评	-17598
触达	-17599
众多的	-17600
保护好	-17601
的方针	-17602
这使得	-17603
apital	-17604
一连	-17605
王蒙	-17606
窝点	-17607
麦当劳	-17608
市场上的	-17609
经营范围	-17610
中航	-17611
候鸟	-17612
半径	-17613
古人	-17614
档次	-17615
牌子	-17616
画作	-17617
草地	-17618
加工厂	-17619
受贿罪	-17620
个人住房	-17621
目前已有	-17622
='	-17623
会把	-17624
还算	-17625
为建设	-17626
公租房	-17627
是一座	-17628
而现在	-17629
外部环境	-17630
全国人民代表大会	-17631
书香	-17632
免去	-17633
恰逢	-17634
旁听	-17635
模特	-17636
花开	-17637
限行	-17638
佛山市	-17639
发电量	-17640
思想上	-17641
暑期档	-17642
最终以	-17643
苏州市	-17644
负面清单	-17645
▁戴	-17646
化了	-17647
奉贤	-17648
引爆	-17649
的刘	-17650
躲避	-17651
▁通知	-17652
潜力的	-17653
贫困村	-17654
较上年	-17655
值得期待	-17656
基准利率	-17657
持续推动	-17658
离子电池	-17659
三省	-17660
丑闻	-17661
争相	-17662
后代	-17663
场均	-17664
平县	-17665
新发	-17666
泡泡	-17667
肩膀	-17668
郭明	-17669
突尼斯	-17670
交流活动	-17671
科研成果	-17672
关注的焦点	-17673
下限	-17674
中报	-17675
创优	-17676
小青	-17677
指战	-17678
方达	-17679
%。”	-17680
基因组	-17681
总金额	-17682
一国两制	-17683
于一体的	-17684
出现问题	-17685
重点任务	-17686
的大背景下	-17687
她也	-17688
接听	-17689
文昌	-17690
牵手	-17691
精美	-17692
这三	-17693
高大	-17694
ash	-17695
废弃物	-17696
计划于	-17697
面积达	-17698
预防和	-17699
事实证明	-17700
枫桥经验	-17701
真正实现	-17702
志刚	-17703
的话语	-17704
▁中国人民	-17705
▁版	-17706
四面	-17707
当庭	-17708
政客	-17709
泛滥	-17710
肢体	-17711
铭记	-17712
之目的	-17713
在发展	-17714
当地人	-17715
新经济	-17716
竞争中	-17717
起诉状	-17718
中心城市	-17719
全系	-17720
机身	-17721
橙色	-17722
画的	-17723
罗拉	-17724
重号	-17725
二十二	-17726
什么样	-17727
吞吐量	-17728
理想的	-17729
年的时间	-17730
实现归母净利润	-17731
巴布	-17732
市内	-17733
核对	-17734
花的	-17735
中南部	-17736
十二条	-17737
体育运动	-17738
能够实现	-17739
脱贫致富	-17740
唱片	-17741
收报	-17742
放入	-17743
敲诈	-17744
胸怀	-17745
▁山西	-17746
南宁市	-17747
是世界上	-17748
追究法律责任	-17749
入门	-17750
欺凌	-17751
立卡	-17752
较早	-17753
产业基地	-17754
招商银行	-17755
互联网企业	-17756
沙特阿拉伯	-17757
××	-17758
周日	-17759
为我国	-17760
小伙子	-17761
指挥员	-17762
河流域	-17763
世界大战	-17764
开庭传票	-17765
记者采访	-17766
与否	-17767
墓葬	-17768
多尔	-17769
敬意	-17770
泽连	-17771
首饰	-17772
不方便	-17773
在其他	-17774
避免了	-17775
默克尔	-17776
参赛选手	-17777
田间地头	-17778
相关业务	-17779
冰淇	-17780
小白	-17781
饱受	-17782
残奥会	-17783
的女儿	-17784
风景区	-17785
▁浙江省	-17786
做好准备	-17787
专线	-17788
地价	-17789
护栏	-17790
杀手	-17791
▁到了	-17792
机器学习	-17793
每个人都	-17794
家和	-17795
欣喜	-17796
瑞银	-17797
突变	-17798
结案	-17799
脉络	-17800
承载着	-17801
最早的	-17802
生产者	-17803
上扬	-17804
相伴	-17805
幸福的	-17806
公益活动	-17807
就意味着	-17808
经济衰退	-17809
违规行为	-17810
切割	-17811
围墙	-17812
李鹏	-17813
办案民警	-17814
总体来看	-17815
FF	-17816
内卷	-17817
外形	-17818
支那	-17819
贩毒	-17820
款产品	-17821
农业技术	-17822
员工持股	-17823
在这样的	-17824
平台建设	-17825
兴旺	-17826
想象的	-17827
党政机关	-17828
日常生活中	-17829
经济技术开发区	-17830
世人	-17831
两类	-17832
余项	-17833
侵蚀	-17834
机和	-17835
海信	-17836
迁徙	-17837
普通话	-17838
高素质	-17839
黄钰涵	-17840
四分之一	-17841
▁八	-17842
庄园	-17843
觉醒	-17844
不锈钢	-17845
国际上	-17846
等众多	-17847
还会有	-17848
安全稳定	-17849
利差	-17850
太高	-17851
对俄	-17852
简洁	-17853
而为	-17854
饭碗	-17855
]**	-17856
东道主	-17857
了一段	-17858
危险的	-17859
甚至连	-17860
▁山东省	-17861
升级改造	-17862
建档立卡	-17863
不动产登记	-17864
业内人士表示	-17865
nm	-17866
▁秦	-17867
下落	-17868
可期	-17869
展销	-17870
排斥	-17871
童话	-17872
银幕	-17873
ime	-17874
措施的	-17875
政治上	-17876
不断推进	-17877
去向	-17878
同为	-17879
四位	-17880
怀念	-17881
胳膊	-17882
在推进	-17883
国际组织	-17884
森林公园	-17885
这也意味着	-17886
不言	-17887
也得	-17888
孤儿	-17889
年头	-17890
心声	-17891
成千	-17892
认清	-17893
饮用	-17894
是他们	-17895
闭幕式	-17896
养老机构	-17897
据此操作	-17898
视觉中国	-17899
动工	-17900
后才	-17901
屋里	-17902
文博	-17903
款的	-17904
供销社	-17905
冰淇淋	-17906
前十大	-17907
和上海	-17908
鲜明的	-17909
HR	-17910
一书	-17911
参演	-17912
支架	-17913
还被	-17914
▁技术	-17915
实际的	-17916
家人的	-17917
无线电	-17918
有意思	-17919
佩克	-17920
分批	-17921
独到	-17922
车和	-17923
阿布	-17924
首度	-17925
他们都	-17926
文化与	-17927
新篇章	-17928
特别的	-17929
官僚主义	-17930
控制系统	-17931
的时间里	-17932
MI	-17933
oT	-17934
▁等	-17935
几何	-17936
巴拉	-17937
新浪网	-17938
说自己	-17939
贵阳市	-17940
主要领导	-17941
基层党组织	-17942
威力	-17943
寄予	-17944
要到	-17945
的领域	-17946
科研机构	-17947
勤劳	-17948
天桥	-17949
怀柔	-17950
见解	-17951
想象力	-17952
护城河	-17953
特定的	-17954
党和人民	-17955
市场监管总局	-17956
将把	-17957
张晓	-17958
生殖	-17959
编码	-17960
东城区	-17961
是今年	-17962
还是会	-17963
还有人	-17964
的时间内	-17965
年了	-17966
爱人	-17967
苏修	-17968
越过	-17969
反动派	-17970
年左右	-17971
的迹象	-17972
需求量	-17973
高端化	-17974
备受关注	-17975
主要负责人	-17976
下挫	-17977
崇尚	-17978
菏泽	-17979
健康码	-17980
有条件	-17981
省委书记	-17982
两码	-17983
优酷	-17984
戈壁	-17985
是将	-17986
淋漓	-17987
璀璨	-17988
秒钟	-17989
IMF	-17990
将用于	-17991
浓厚的	-17992
温州市	-17993
结构和	-17994
该基金	-17995
统筹协调	-17996
一角	-17997
奋勇	-17998
耕作	-17999
交流会	-18000
人们在	-18001
已对	-18002
歌词	-18003
莎菲	-18004
领奖	-18005
》)。	-18006
净利率	-18007
回忆起	-18008
的使命	-18009
的好处	-18010
老太太	-18011
旅游资源	-18012
气象部门	-18013
青藏高原	-18014
▁为进一步	-18015
包袱	-18016
奖杯	-18017
寂寞	-18018
松江	-18019
盘点	-18020
一时间	-18021
固定的	-18022
被列入	-18023
过来的	-18024
陷入了	-18025
息息相关	-18026
创伤	-18027
林地	-18028
炼油	-18029
答题	-18030
表面上	-18031
年第二季度	-18032
善意	-18033
撞击	-18034
用房	-18035
这事	-18036
追随	-18037
Air	-18038
你知道	-18039
而是在	-18040
中国选手	-18041
全体会议	-18042
泽连斯基	-18043
金山银山	-18044
▁不仅如此	-18045
内有	-18046
圆桌	-18047
布什	-18048
波及	-18049
轻重	-18050
个方面	-18051
也是在	-18052
境内的	-18053
的营收	-18054
让学生	-18055
一网	-18056
当他	-18057
绝望	-18058
飞天	-18059
首秀	-18060
[...]
